
// This is a TensorFlow Lite model file that has been converted into a C data
// array using the tensorflow.lite.util.convert_bytes_to_c_source() function.
// This form is useful for compiling into a binary for devices that don't have a
// file system.

#include "model_quant_data.h"

// We need to keep the data array aligned on some architectures.
#ifdef __has_attribute
#define HAVE_ATTRIBUTE(x) __has_attribute(x)
#else
#define HAVE_ATTRIBUTE(x) 0
#endif
#if HAVE_ATTRIBUTE(aligned) || (defined(__GNUC__) && !defined(__clang__))
#define DATA_ALIGN_ATTRIBUTE __attribute__((aligned(4)))
#else
#define DATA_ALIGN_ATTRIBUTE
#endif

const unsigned char g_model_quant_data[] DATA_ALIGN_ATTRIBUTE = {
    0x20, 0x00, 0x00, 0x00, 0x54, 0x46, 0x4c, 0x33, 0x00, 0x00, 0x00, 0x00, 0x14,
    0x00, 0x20, 0x00, 0x1c, 0x00, 0x18, 0x00, 0x14, 0x00, 0x10, 0x00, 0x0c, 0x00,
    0x00, 0x00, 0x08, 0x00, 0x04, 0x00, 0x14, 0x00, 0x00, 0x00, 0x1c, 0x00, 0x00,
    0x00, 0x8c, 0x00, 0x00, 0x00, 0xe4, 0x00, 0x00, 0x00, 0xc0, 0x3e, 0x00, 0x00,
    0xd0, 0x3e, 0x00, 0x00, 0x90, 0x4e, 0x00, 0x00, 0x03, 0x00, 0x00, 0x00, 0x01,
    0x00, 0x00, 0x00, 0x04, 0x00, 0x00, 0x00, 0x92, 0xc0, 0xff, 0xff, 0x0c, 0x00,
    0x00, 0x00, 0x1c, 0x00, 0x00, 0x00, 0x38, 0x00, 0x00, 0x00, 0x0f, 0x00, 0x00,
    0x00, 0x73, 0x65, 0x72, 0x76, 0x69, 0x6e, 0x67, 0x5f, 0x64, 0x65, 0x66, 0x61,
    0x75, 0x6c, 0x74, 0x00, 0x01, 0x00, 0x00, 0x00, 0x04, 0x00, 0x00, 0x00, 0x90,
    0xff, 0xff, 0xff, 0x0f, 0x00, 0x00, 0x00, 0x04, 0x00, 0x00, 0x00, 0x05, 0x00,
    0x00, 0x00, 0x64, 0x65, 0x6e, 0x73, 0x65, 0x00, 0x00, 0x00, 0x01, 0x00, 0x00,
    0x00, 0x04, 0x00, 0x00, 0x00, 0xc6, 0xc1, 0xff, 0xff, 0x04, 0x00, 0x00, 0x00,
    0x11, 0x00, 0x00, 0x00, 0x72, 0x65, 0x73, 0x63, 0x61, 0x6c, 0x69, 0x6e, 0x67,
    0x5f, 0x31, 0x5f, 0x69, 0x6e, 0x70, 0x75, 0x74, 0x00, 0x00, 0x00, 0x02, 0x00,
    0x00, 0x00, 0x34, 0x00, 0x00, 0x00, 0x04, 0x00, 0x00, 0x00, 0xdc, 0xff, 0xff,
    0xff, 0x12, 0x00, 0x00, 0x00, 0x04, 0x00, 0x00, 0x00, 0x13, 0x00, 0x00, 0x00,
    0x43, 0x4f, 0x4e, 0x56, 0x45, 0x52, 0x53, 0x49, 0x4f, 0x4e, 0x5f, 0x4d, 0x45,
    0x54, 0x41, 0x44, 0x41, 0x54, 0x41, 0x00, 0x08, 0x00, 0x0c, 0x00, 0x08, 0x00,
    0x04, 0x00, 0x08, 0x00, 0x00, 0x00, 0x11, 0x00, 0x00, 0x00, 0x04, 0x00, 0x00,
    0x00, 0x13, 0x00, 0x00, 0x00, 0x6d, 0x69, 0x6e, 0x5f, 0x72, 0x75, 0x6e, 0x74,
    0x69, 0x6d, 0x65, 0x5f, 0x76, 0x65, 0x72, 0x73, 0x69, 0x6f, 0x6e, 0x00, 0x13,
    0x00, 0x00, 0x00, 0xd8, 0x3d, 0x00, 0x00, 0xd0, 0x3d, 0x00, 0x00, 0xb8, 0x3d,
    0x00, 0x00, 0x8c, 0x3d, 0x00, 0x00, 0x7c, 0x15, 0x00, 0x00, 0xec, 0x14, 0x00,
    0x00, 0xdc, 0x02, 0x00, 0x00, 0x8c, 0x02, 0x00, 0x00, 0xcc, 0x00, 0x00, 0x00,
    0xc4, 0x00, 0x00, 0x00, 0xbc, 0x00, 0x00, 0x00, 0xb4, 0x00, 0x00, 0x00, 0xac,
    0x00, 0x00, 0x00, 0xa4, 0x00, 0x00, 0x00, 0x9c, 0x00, 0x00, 0x00, 0x94, 0x00,
    0x00, 0x00, 0x8c, 0x00, 0x00, 0x00, 0x6c, 0x00, 0x00, 0x00, 0x04, 0x00, 0x00,
    0x00, 0x92, 0xc2, 0xff, 0xff, 0x04, 0x00, 0x00, 0x00, 0x58, 0x00, 0x00, 0x00,
    0x0c, 0x00, 0x00, 0x00, 0x08, 0x00, 0x0e, 0x00, 0x08, 0x00, 0x04, 0x00, 0x08,
    0x00, 0x00, 0x00, 0x10, 0x00, 0x00, 0x00, 0x28, 0x00, 0x00, 0x00, 0x00, 0x00,
    0x06, 0x00, 0x08, 0x00, 0x04, 0x00, 0x06, 0x00, 0x00, 0x00, 0x04, 0x00, 0x00,
    0x00, 0x01, 0x00, 0x00, 0x00, 0xeb, 0x03, 0x00, 0x00, 0x00, 0x00, 0x0a, 0x00,
    0x10, 0x00, 0x0c, 0x00, 0x08, 0x00, 0x04, 0x00, 0x0a, 0x00, 0x00, 0x00, 0x02,
    0x00, 0x00, 0x00, 0x02, 0x00, 0x00, 0x00, 0x04, 0x00, 0x00, 0x00, 0x06, 0x00,
    0x00, 0x00, 0x32, 0x2e, 0x31, 0x33, 0x2e, 0x30, 0x00, 0x00, 0xf6, 0xc2, 0xff,
    0xff, 0x04, 0x00, 0x00, 0x00, 0x10, 0x00, 0x00, 0x00, 0x31, 0x2e, 0x31, 0x34,
    0x2e, 0x30, 0x00, 0x00, 0x00, 0x00, 0x00, 0x00, 0x00, 0x00, 0x00, 0x00, 0x00,
    0xb4, 0xff, 0xff, 0x04, 0xb4, 0xff, 0xff, 0x08, 0xb4, 0xff, 0xff, 0x0c, 0xb4,
    0xff, 0xff, 0x10, 0xb4, 0xff, 0xff, 0x14, 0xb4, 0xff, 0xff, 0x18, 0xb4, 0xff,
    0xff, 0x1c, 0xb4, 0xff, 0xff, 0x32, 0xc3, 0xff, 0xff, 0x04, 0x00, 0x00, 0x00,
    0xb0, 0x01, 0x00, 0x00, 0xa5, 0xd2, 0xd6, 0x0c, 0xf2, 0x6c, 0xc8, 0x28, 0x57,
    0xd4, 0xbd, 0x6c, 0xb7, 0xc2, 0x76, 0xd7, 0xe7, 0x7f, 0x12, 0xda, 0xf5, 0x45,
    0x38, 0x38, 0xa8, 0xff, 0x00, 0xaa, 0x03, 0x5a, 0xfb, 0xfd, 0x05, 0x54, 0x31,
    0x81, 0x40, 0xbd, 0x1d, 0x69, 0x99, 0xee, 0xc6, 0x45, 0xe5, 0x68, 0x98, 0x04,
    0x56, 0xa2, 0x03, 0xaa, 0x69, 0xe3, 0xb5, 0x20, 0x18, 0xe2, 0xeb, 0x4f, 0xd8,
    0xc8, 0xf0, 0xea, 0x36, 0xd4, 0xee, 0x47, 0xe0, 0x47, 0xf5, 0x3e, 0x4b, 0x4c,
    0x81, 0x05, 0xed, 0x9c, 0xdd, 0xfc, 0x41, 0xb9, 0x9c, 0x69, 0xe9, 0x56, 0x84,
    0x7f, 0x26, 0x92, 0x38, 0x3a, 0xe1, 0x9f, 0xc3, 0x62, 0x4c, 0xe1, 0xe8, 0x90,
    0x05, 0x7d, 0xd4, 0x10, 0x44, 0x06, 0x41, 0x1e, 0xd5, 0xd1, 0x1f, 0x75, 0x24,
    0x02, 0xb9, 0x88, 0xdc, 0xdc, 0xd7, 0xa2, 0x42, 0x3f, 0x66, 0xd2, 0x09, 0x0a,
    0x2e, 0xdb, 0xd6, 0xb2, 0x81, 0x26, 0x29, 0xb2, 0xf3, 0xb1, 0x41, 0x99, 0x42,
    0x04, 0x81, 0x9c, 0x3f, 0xac, 0x14, 0x4a, 0xa1, 0xd2, 0x5e, 0x10, 0x96, 0x73,
    0x6c, 0x06, 0xe4, 0xdd, 0x60, 0xf9, 0xc3, 0x02, 0x3d, 0x23, 0xdb, 0xe4, 0x07,
    0x43, 0x27, 0xe0, 0xe5, 0x9d, 0x48, 0xe5, 0xc1, 0xe7, 0xdd, 0x81, 0x86, 0x03,
    0xc6, 0x5a, 0x66, 0x65, 0x65, 0x0c, 0x78, 0x55, 0x4a, 0x90, 0xea, 0xc3, 0x34,
    0x8e, 0xf2, 0x2e, 0x41, 0xaf, 0xea, 0xd3, 0x45, 0x31, 0xf2, 0xe6, 0xc6, 0x3d,
    0x30, 0x42, 0x7f, 0x01, 0xb2, 0xcc, 0x22, 0x9e, 0xa5, 0x48, 0x00, 0x64, 0xdc,
    0x2b, 0x4c, 0xc5, 0xf0, 0xb6, 0x6d, 0x59, 0x7f, 0x76, 0x63, 0x49, 0x36, 0x0f,
    0x51, 0x46, 0x0e, 0x37, 0x8a, 0xbf, 0xd3, 0x04, 0x05, 0x3e, 0xbd, 0x07, 0x3b,
    0x75, 0x0f, 0xdd, 0x14, 0xd3, 0x4a, 0x27, 0xab, 0xb9, 0x55, 0x27, 0x50, 0xd4,
    0x57, 0x2c, 0x95, 0xec, 0x26, 0x57, 0x0e, 0x2d, 0xb5, 0x25, 0x41, 0x81, 0xd7,
    0xfe, 0x34, 0x6d, 0xca, 0x4e, 0x32, 0x81, 0xf3, 0xfd, 0xb4, 0xa1, 0xd7, 0x61,
    0x03, 0x1f, 0xff, 0x67, 0x1c, 0x9d, 0xf3, 0xb3, 0xfd, 0x02, 0xd7, 0x13, 0x98,
    0xb4, 0x3c, 0x4b, 0x08, 0x1c, 0xd3, 0x52, 0x31, 0xd4, 0xab, 0x81, 0x2f, 0xeb,
    0x6f, 0x13, 0x0d, 0x4e, 0xf9, 0xe2, 0x4d, 0xe2, 0xe4, 0xb9, 0x14, 0xd9, 0xea,
    0xce, 0x13, 0xc5, 0x1e, 0x31, 0x50, 0x16, 0xbc, 0xe0, 0xc3, 0xa6, 0x61, 0x6d,
    0xf9, 0x13, 0x71, 0x81, 0xdd, 0x5f, 0xd7, 0xb3, 0x13, 0x97, 0x64, 0xff, 0xa5,
    0x19, 0x12, 0x85, 0x4b, 0xe3, 0x9d, 0x05, 0x1f, 0x65, 0x99, 0xd2, 0x60, 0x81,
    0x47, 0x4e, 0x38, 0x2f, 0x52, 0x81, 0x31, 0x02, 0xf0, 0x35, 0x18, 0xa8, 0x32,
    0x26, 0x84, 0x04, 0xff, 0x83, 0xf2, 0x66, 0x22, 0xd7, 0x1e, 0xcf, 0x6a, 0xe0,
    0x7f, 0xe9, 0xab, 0x39, 0xd3, 0xa8, 0xa4, 0xce, 0x71, 0x68, 0x2b, 0x83, 0x8d,
    0x63, 0x88, 0x9c, 0x31, 0x32, 0xfc, 0x2a, 0x26, 0x05, 0x53, 0xc9, 0x5f, 0x15,
    0x0b, 0x36, 0xeb, 0xe7, 0xf4, 0xba, 0x47, 0x05, 0xbd, 0xd9, 0xa0, 0x09, 0xdd,
    0xe6, 0x3f, 0xf1, 0x21, 0x0e, 0xba, 0x81, 0xee, 0xc4, 0xff, 0xff, 0x04, 0x00,
    0x00, 0x00, 0x40, 0x00, 0x00, 0x00, 0x67, 0x10, 0x00, 0x00, 0xe9, 0xef, 0xff,
    0xff, 0xcc, 0xe9, 0xff, 0xff, 0x32, 0xea, 0xff, 0xff, 0x46, 0x37, 0x00, 0x00,
    0x46, 0x05, 0x00, 0x00, 0x36, 0xf8, 0xff, 0xff, 0x58, 0xe5, 0xff, 0xff, 0x42,
    0xfc, 0xff, 0xff, 0x01, 0xe1, 0xff, 0xff, 0x5e, 0xf8, 0xff, 0xff, 0xa9, 0xd4,
    0xff, 0xff, 0xf0, 0xee, 0xff, 0xff, 0xcc, 0xfa, 0xff, 0xff, 0xfb, 0xeb, 0xff,
    0xff, 0x31, 0xee, 0xff, 0xff, 0x3a, 0xc5, 0xff, 0xff, 0x04, 0x00, 0x00, 0x00,
    0x00, 0x12, 0x00, 0x00, 0xf2, 0x46, 0xbe, 0x26, 0x8c, 0xe2, 0xf1, 0x85, 0xf7,
    0x01, 0xf2, 0xd8, 0xee, 0x3d, 0xcf, 0x11, 0xbd, 0x2d, 0x66, 0x04, 0xfb, 0x50,
    0xcc, 0x19, 0xf1, 0xa3, 0xfe, 0xce, 0x19, 0x33, 0x1d, 0xd4, 0xd1, 0xdb, 0x49,
    0x0b, 0xc1, 0x2a, 0xf3, 0xf3, 0xea, 0x0d, 0xf1, 0xea, 0xc3, 0x24, 0xed, 0xa8,
    0xc1, 0x04, 0x8a, 0x77, 0xdb, 0xb9, 0xdf, 0x06, 0xd6, 0x08, 0x05, 0x46, 0x3d,
    0xe8, 0x89, 0xd4, 0xf7, 0x1f, 0x8e, 0x2b, 0x24, 0x4c, 0xd6, 0xf8, 0xf1, 0xfd,
    0xc9, 0xb9, 0x23, 0x55, 0xac, 0xf2, 0x30, 0x15, 0xd2, 0xab, 0x37, 0x48, 0xd6,
    0xee, 0xc5, 0xcc, 0xfe, 0x3a, 0xe7, 0x3d, 0xf4, 0x17, 0x34, 0xc9, 0xc1, 0x23,
    0x0a, 0xa2, 0xfa, 0x13, 0x13, 0x45, 0x82, 0x2f, 0x40, 0x88, 0x2c, 0xd4, 0x2c,
    0xf1, 0xd8, 0x4d, 0x08, 0xdd, 0xed, 0xea, 0x35, 0x25, 0x14, 0x54, 0x2b, 0x27,
    0xda, 0xa1, 0x3e, 0xfd, 0xe6, 0x25, 0x2b, 0x10, 0xc8, 0x02, 0x2a, 0x09, 0xe5,
    0x7f, 0x14, 0x12, 0xb2, 0x23, 0x27, 0xa2, 0xd8, 0x23, 0xd7, 0x07, 0xfe, 0xf9,
    0x34, 0x3e, 0x25, 0x1e, 0xe2, 0xc3, 0xe1, 0xe3, 0xf2, 0x00, 0x93, 0x02, 0xd8,
    0xf7, 0x33, 0xb8, 0xe3, 0x36, 0x05, 0x29, 0x08, 0xdc, 0xaf, 0xd8, 0x09, 0xc1,
    0xc3, 0x0d, 0x14, 0xe4, 0xf4, 0x1f, 0xdc, 0xde, 0xe0, 0xe9, 0xd7, 0x01, 0xc6,
    0xf2, 0x01, 0xb6, 0x16, 0xf4, 0x41, 0xc8, 0xed, 0xfd, 0x17, 0x3e, 0x0e, 0x7f,
    0x14, 0x0a, 0x15, 0x47, 0xda, 0xb4, 0xbe, 0xfa, 0x22, 0xbe, 0x14, 0xcc, 0x2b,
    0x0e, 0x27, 0x06, 0x30, 0xea, 0xdf, 0xfd, 0xdf, 0xc8, 0x00, 0x02, 0x15, 0xfe,
    0x3a, 0x1b, 0x1d, 0x00, 0xdd, 0xff, 0xf2, 0x0c, 0xe7, 0xaf, 0xee, 0xd9, 0xf3,
    0xde, 0xf7, 0xff, 0x14, 0x0c, 0xf7, 0x21, 0x10, 0x4a, 0xc6, 0x1a, 0x16, 0x3d,
    0xfc, 0xab, 0xc7, 0xd7, 0x0f, 0xd9, 0xe3, 0xec, 0x13, 0x0c, 0x26, 0xdf, 0xcd,
    0xdf, 0xd4, 0xe5, 0xfb, 0xae, 0x05, 0xf0, 0xff, 0xc7, 0x2d, 0xe8, 0xf1, 0x24,
    0x18, 0x22, 0xf3, 0xd6, 0x1b, 0xf0, 0xd0, 0x4d, 0xac, 0xbe, 0x48, 0xdf, 0xfc,
    0x29, 0xff, 0xc2, 0xb5, 0x10, 0x09, 0xd6, 0x55, 0xfb, 0x3d, 0x43, 0xf9, 0xf9,
    0x1f, 0xdf, 0xc7, 0x39, 0xf5, 0xed, 0xcd, 0x55, 0x5c, 0x00, 0x51, 0xfd, 0xed,
    0x1f, 0x09, 0xfd, 0xf8, 0x0b, 0xd1, 0x51, 0xdd, 0xc4, 0xb9, 0x18, 0x42, 0xb0,
    0xfe, 0x23, 0x16, 0x34, 0xa9, 0xc6, 0x6c, 0xf3, 0x05, 0xd9, 0x11, 0x2e, 0xbe,
    0xc4, 0x56, 0xd4, 0x36, 0x31, 0xe1, 0xf8, 0xf3, 0x04, 0x4a, 0xdd, 0xe9, 0x1c,
    0x22, 0x0e, 0xb4, 0x1f, 0x61, 0xb7, 0xd8, 0x4d, 0xe5, 0x30, 0xdc, 0xc2, 0xee,
    0xf9, 0x01, 0x5b, 0xe8, 0xe0, 0x88, 0xdc, 0x42, 0x24, 0x12, 0x3f, 0xf4, 0x75,
    0xe7, 0x16, 0xc8, 0x08, 0x15, 0x0d, 0xd9, 0xf0, 0xd6, 0x44, 0x65, 0x05, 0xfc,
    0xe3, 0x11, 0x40, 0x43, 0x1f, 0xf9, 0xeb, 0x5b, 0x4c, 0xcf, 0x3f, 0xec, 0x4f,
    0x55, 0xed, 0xf9, 0x1e, 0x30, 0x7f, 0xe7, 0x24, 0x04, 0xe2, 0x29, 0x41, 0x39,
    0xf7, 0x88, 0x31, 0x31, 0x18, 0x3f, 0xf7, 0xf3, 0x32, 0xf5, 0x26, 0xe1, 0x51,
    0x1f, 0x5d, 0x22, 0x12, 0x97, 0xbf, 0xc3, 0xcf, 0x47, 0xdc, 0x13, 0x3c, 0xdf,
    0x3a, 0xc0, 0x3f, 0x19, 0x43, 0xd1, 0xca, 0xd3, 0x2e, 0xe7, 0x00, 0x1e, 0x39,
    0x1f, 0xe9, 0x09, 0x03, 0xc3, 0x0a, 0x2b, 0x7f, 0x0f, 0xf3, 0xc3, 0xd0, 0xf3,
    0xfa, 0x18, 0xfa, 0x2d, 0xed, 0x1c, 0xe7, 0xc8, 0xf8, 0x45, 0xdc, 0x32, 0x10,
    0xcc, 0x0e, 0x2e, 0xe8, 0xf7, 0x03, 0xf4, 0xef, 0x11, 0x1a, 0x1f, 0xba, 0x1c,
    0xfb, 0x3c, 0xfa, 0xe4, 0x1f, 0x24, 0xf4, 0x2b, 0x77, 0xb2, 0x32, 0xdd, 0xfe,
    0x3d, 0xac, 0x44, 0x36, 0x4d, 0x32, 0x10, 0x29, 0xec, 0xe3, 0x52, 0x13, 0xe6,
    0xfc, 0x9f, 0xc2, 0x9b, 0x96, 0xc9, 0x8b, 0xfe, 0xd7, 0x10, 0xc5, 0xf9, 0xbf,
    0xbf, 0x5b, 0xf9, 0x24, 0x11, 0xf0, 0xe8, 0xc4, 0x09, 0xf6, 0xfb, 0x1c, 0xdd,
    0xc8, 0x09, 0xf8, 0x1d, 0x6e, 0x22, 0xba, 0xe6, 0xc1, 0xed, 0xea, 0xe3, 0xa2,
    0xcd, 0x18, 0x41, 0xc0, 0xef, 0x0f, 0xc9, 0x67, 0x0c, 0xec, 0xec, 0xff, 0x6d,
    0x3f, 0x2d, 0x18, 0xf8, 0x2e, 0x0c, 0x42, 0xe9, 0xe1, 0x81, 0x14, 0xee, 0xca,
    0xed, 0xbd, 0xe0, 0x47, 0xc9, 0xfc, 0xd3, 0x10, 0xeb, 0xe7, 0xdc, 0xcb, 0x48,
    0x8c, 0x00, 0xcf, 0xf9, 0xb7, 0x32, 0x47, 0x1d, 0x12, 0x32, 0xdd, 0xd9, 0xd7,
    0xe7, 0x33, 0xa7, 0x21, 0x30, 0x14, 0xd0, 0xce, 0x38, 0x1f, 0x27, 0xc3, 0x3f,
    0x26, 0x3c, 0x6c, 0xeb, 0x41, 0xac, 0xa8, 0xc7, 0xe1, 0x16, 0xcf, 0x5b, 0x22,
    0xf8, 0xda, 0x34, 0xd6, 0x9f, 0xc5, 0x9f, 0x23, 0xd4, 0xeb, 0xd6, 0xcf, 0x2d,
    0x29, 0x69, 0xfc, 0x4d, 0xe8, 0x0e, 0x28, 0x57, 0x37, 0x10, 0x03, 0xf7, 0x09,
    0xff, 0xbc, 0xdb, 0xd3, 0xd7, 0xf1, 0xfb, 0xdc, 0x3e, 0xc5, 0x4d, 0xba, 0xb5,
    0x14, 0x1b, 0x06, 0xcb, 0x02, 0x2b, 0x0a, 0xd3, 0xcb, 0x40, 0x06, 0xd9, 0xf4,
    0xe3, 0xff, 0x88, 0x0e, 0xd5, 0xe6, 0xdf, 0x97, 0xc7, 0x17, 0xb3, 0x05, 0x15,
    0xd6, 0xe0, 0xfa, 0x0d, 0x4d, 0xc1, 0x36, 0xd4, 0xda, 0xc0, 0x6f, 0x15, 0x1a,
    0xb9, 0x1a, 0xf9, 0x0f, 0xd8, 0xd6, 0x08, 0x01, 0xfa, 0x0e, 0xd1, 0xe7, 0xc0,
    0x72, 0x18, 0xce, 0xe1, 0x34, 0x10, 0x14, 0xc2, 0x0c, 0x0c, 0xf0, 0x0c, 0x26,
    0x2d, 0xf3, 0x0f, 0x48, 0x25, 0x04, 0xa2, 0x16, 0x03, 0x0c, 0xd0, 0xd3, 0xcc,
    0xf1, 0xdc, 0x10, 0x27, 0xc6, 0x0d, 0x32, 0x10, 0x2c, 0xaa, 0x28, 0x1e, 0x12,
    0xfa, 0x41, 0xc0, 0x3b, 0x00, 0x01, 0xce, 0x9d, 0xec, 0x46, 0xb3, 0x3c, 0x23,
    0x30, 0x4e, 0x05, 0xfd, 0x0a, 0xf0, 0x38, 0x29, 0x17, 0xd5, 0xd6, 0x2a, 0xd6,
    0xcf, 0x43, 0xc0, 0xff, 0x46, 0xff, 0xeb, 0xe9, 0x85, 0x01, 0xd7, 0xe4, 0xea,
    0x19, 0xfb, 0xf1, 0x64, 0x1b, 0xfb, 0x0e, 0x08, 0x40, 0x15, 0xfd, 0xc3, 0x5d,
    0xd2, 0xbc, 0x25, 0xf9, 0x40, 0xdd, 0x24, 0x53, 0x0c, 0x0b, 0x03, 0xfc, 0x3e,
    0x00, 0xb6, 0x3f, 0x2b, 0xe1, 0xf4, 0x28, 0xe9, 0xd1, 0x32, 0x3f, 0xf4, 0xcd,
    0x36, 0xfd, 0x16, 0xfb, 0xcf, 0x7f, 0x29, 0xd3, 0x0b, 0x09, 0xc2, 0x49, 0x47,
    0x7d, 0xdb, 0xbb, 0xef, 0xd3, 0xbd, 0xbd, 0x35, 0xfa, 0xf5, 0x4e, 0xc2, 0x5f,
    0xde, 0x0b, 0x99, 0x26, 0x8b, 0xcf, 0x0b, 0xfd, 0xec, 0xbc, 0xfc, 0x81, 0x04,
    0x31, 0x08, 0x3b, 0x10, 0xd8, 0x1d, 0xc7, 0xf1, 0x13, 0x2b, 0x6e, 0x03, 0xdc,
    0x19, 0xe5, 0xdc, 0x09, 0x21, 0xc8, 0x13, 0x1b, 0x53, 0x0c, 0x26, 0x38, 0xca,
    0x38, 0x2e, 0xd3, 0x50, 0xf3, 0x3b, 0x36, 0x66, 0xfb, 0x3f, 0x32, 0x13, 0x3b,
    0xfa, 0xfe, 0xf0, 0x65, 0x20, 0xfe, 0x63, 0xe5, 0xc4, 0xd2, 0x07, 0xfd, 0x37,
    0x26, 0x2f, 0x5f, 0x2c, 0x49, 0x42, 0x19, 0x25, 0x1d, 0x26, 0xfe, 0xcf, 0x36,
    0x37, 0x78, 0x00, 0x3e, 0x28, 0x47, 0x4d, 0xf5, 0x4c, 0x0d, 0xe2, 0x2e, 0x62,
    0xe8, 0xab, 0x2e, 0xd2, 0xfa, 0x19, 0xc0, 0xf8, 0x3b, 0xba, 0xbb, 0x15, 0xe5,
    0xfd, 0x2a, 0x7e, 0xd8, 0xb5, 0xb3, 0x0d, 0xd8, 0xdd, 0xcb, 0x9d, 0xe7, 0x33,
    0xa5, 0xd2, 0xa1, 0xbe, 0x07, 0x55, 0xe1, 0x06, 0xcf, 0xec, 0x2c, 0xed, 0xe5,
    0xdc, 0x1d, 0x36, 0x22, 0x2d, 0xfb, 0xe3, 0x13, 0x56, 0xec, 0xea, 0x07, 0xe5,
    0xe9, 0xe6, 0xfc, 0x35, 0xd6, 0xf0, 0x0d, 0x19, 0x0f, 0xfc, 0xf4, 0x02, 0x0d,
    0xfe, 0x30, 0xe1, 0x0d, 0x13, 0x1e, 0x07, 0xce, 0x47, 0xeb, 0xf8, 0x28, 0x25,
    0xbe, 0xd9, 0x01, 0xcb, 0x0f, 0x01, 0xc3, 0xc8, 0xed, 0xf1, 0x06, 0xe8, 0xeb,
    0x47, 0x0b, 0x06, 0xdc, 0x4e, 0x16, 0xea, 0x01, 0xf6, 0xe2, 0xf9, 0xf3, 0x03,
    0xe6, 0x5b, 0xe4, 0xfc, 0xfc, 0xea, 0xd0, 0x37, 0xfc, 0xd0, 0x15, 0x00, 0xee,
    0xff, 0xc1, 0x1e, 0xf9, 0x3c, 0x34, 0x15, 0x29, 0x0c, 0x20, 0x66, 0xf7, 0x11,
    0x3e, 0xd6, 0x10, 0x23, 0xf4, 0xe6, 0x0e, 0x6b, 0xf5, 0x24, 0xc4, 0x34, 0x24,
    0x51, 0x2b, 0xf2, 0x12, 0xe1, 0xc6, 0x05, 0xe6, 0x26, 0x2b, 0x7f, 0xed, 0x40,
    0x02, 0x0a, 0xf7, 0x40, 0xdd, 0xd1, 0x25, 0xe0, 0xad, 0xf6, 0xf9, 0xd6, 0xe3,
    0x45, 0xe0, 0xef, 0x32, 0xcc, 0xd0, 0x34, 0xca, 0xcb, 0xe7, 0xe6, 0xbd, 0xa5,
    0x22, 0x39, 0x08, 0x33, 0x26, 0x13, 0x00, 0xe1, 0xe6, 0x77, 0xce, 0xd3, 0x31,
    0xd7, 0xfa, 0x90, 0x1b, 0x42, 0xed, 0xff, 0x0a, 0xe3, 0xd4, 0xfc, 0x44, 0x5c,
    0xc6, 0x01, 0x3a, 0x90, 0xfb, 0xce, 0xf8, 0x2e, 0xf8, 0x43, 0xdc, 0x0f, 0x33,
    0xd7, 0x3e, 0x49, 0x2e, 0x23, 0xf5, 0xe4, 0x10, 0x9d, 0x16, 0xf9, 0x04, 0x28,
    0x20, 0xd0, 0x28, 0x1f, 0xe4, 0x67, 0xb2, 0xf0, 0x12, 0x1b, 0x26, 0xaf, 0xf4,
    0x16, 0xc4, 0x09, 0xf0, 0x0f, 0xe7, 0xe0, 0x4c, 0x6c, 0xd5, 0x2d, 0x1e, 0xd1,
    0x17, 0xe8, 0xdb, 0x02, 0xe9, 0x11, 0xd0, 0xf8, 0xe4, 0xd4, 0x2e, 0x25, 0xc6,
    0xe4, 0xf6, 0x04, 0x02, 0xd4, 0x35, 0x00, 0x25, 0x2b, 0xfb, 0x17, 0xf4, 0x03,
    0xdf, 0x7f, 0xd5, 0xe4, 0x32, 0x10, 0x10, 0xe1, 0xfe, 0x39, 0x0a, 0xf1, 0xee,
    0xf6, 0x16, 0xef, 0x36, 0x4b, 0xd4, 0x39, 0x29, 0xd3, 0x22, 0xc0, 0x1b, 0x29,
    0xc8, 0x3d, 0xe3, 0x04, 0xe1, 0xff, 0xdf, 0x4b, 0xad, 0x08, 0xdd, 0x0c, 0x06,
    0x0c, 0xe5, 0x08, 0xf7, 0x7b, 0x0f, 0x0e, 0xff, 0x2a, 0x10, 0xf4, 0x12, 0xb6,
    0xd3, 0x09, 0xb5, 0x30, 0xf8, 0x0d, 0x22, 0x29, 0xeb, 0xd7, 0xef, 0x2a, 0x20,
    0xb1, 0xe6, 0xa9, 0x29, 0x0a, 0xda, 0x2d, 0x07, 0x13, 0xff, 0x51, 0x3b, 0x23,
    0x15, 0x09, 0xc1, 0x4b, 0xe7, 0xe8, 0xf4, 0xf2, 0xd9, 0x4c, 0xee, 0x0a, 0xdc,
    0xea, 0xed, 0xd3, 0x10, 0x27, 0xb3, 0x0d, 0xdb, 0xfa, 0x2b, 0x1b, 0x0a, 0xda,
    0xde, 0xe5, 0xbb, 0x18, 0x0a, 0x3a, 0xbd, 0xfd, 0x10, 0x18, 0x81, 0xc7, 0xde,
    0xdc, 0x9c, 0xf5, 0xb3, 0xda, 0xac, 0xd1, 0x00, 0x24, 0x08, 0xef, 0x10, 0xe7,
    0xbf, 0xd9, 0x3c, 0xbb, 0xcd, 0xdf, 0x08, 0xd8, 0x1b, 0x20, 0x35, 0xeb, 0x32,
    0x2e, 0xc2, 0x27, 0x00, 0xb9, 0x38, 0x1e, 0xb5, 0xd4, 0x0e, 0xf1, 0xf5, 0x5e,
    0x11, 0xf8, 0x15, 0x22, 0xc4, 0x00, 0x0c, 0xad, 0x3f, 0xb1, 0xcd, 0xbf, 0xf9,
    0xdc, 0xe0, 0x1f, 0xdf, 0x1a, 0x11, 0xdc, 0x2a, 0x03, 0xd4, 0xea, 0x15, 0x08,
    0xc7, 0x11, 0xfb, 0x32, 0x12, 0xe4, 0x4c, 0x1b, 0x3c, 0xef, 0xc5, 0xad, 0x2f,
    0x54, 0xf6, 0x26, 0xf3, 0x04, 0x7f, 0x12, 0x0f, 0xc6, 0x0a, 0x03, 0x3e, 0xde,
    0xe9, 0xea, 0xf8, 0x69, 0x19, 0x57, 0x3f, 0xfa, 0x3f, 0xe8, 0xd5, 0xf6, 0x0d,
    0x01, 0xe0, 0xfb, 0x2d, 0xb6, 0x2b, 0xfe, 0xf8, 0xe3, 0x0b, 0xed, 0x12, 0x26,
    0x06, 0xbb, 0x06, 0x1e, 0x2e, 0x01, 0xf7, 0xf1, 0xf8, 0x65, 0x21, 0x30, 0x12,
    0x0d, 0x72, 0xc9, 0xc1, 0x04, 0x1b, 0xe0, 0x2d, 0x12, 0x1a, 0xdc, 0xe5, 0x3d,
    0xcb, 0x36, 0x11, 0xed, 0x65, 0x22, 0xe5, 0xb7, 0x09, 0xe5, 0xec, 0xe9, 0x46,
    0xbf, 0x0d, 0xed, 0x08, 0x06, 0xfb, 0x25, 0x3e, 0xed, 0xf7, 0xfc, 0x11, 0x20,
    0xe2, 0xe1, 0x30, 0xea, 0xed, 0xf5, 0xd4, 0x12, 0x25, 0xcd, 0x09, 0x0c, 0x0b,
    0xdc, 0xfd, 0x1a, 0xc5, 0xde, 0x11, 0xd0, 0x0f, 0x52, 0xe5, 0xc7, 0xe6, 0xfe,
    0x49, 0x2b, 0x13, 0xbf, 0x1a, 0xb5, 0xc9, 0xfa, 0x2b, 0xc4, 0x0e, 0x08, 0x02,
    0x1d, 0xcd, 0x42, 0xdc, 0xf1, 0xf5, 0xe1, 0x1c, 0x3c, 0x24, 0xf6, 0xda, 0xd9,
    0xea, 0x51, 0xe8, 0x0a, 0x29, 0xef, 0x54, 0xe4, 0x01, 0xb7, 0x0d, 0x47, 0x1a,
    0xc4, 0x42, 0xfb, 0x55, 0x46, 0x45, 0xf3, 0x56, 0xd1, 0x4e, 0xc6, 0x25, 0xc8,
    0x19, 0xe5, 0xc1, 0xdb, 0xbb, 0xdd, 0x81, 0xd7, 0x36, 0x35, 0xdd, 0x58, 0x43,
    0x3a, 0x00, 0xf1, 0xe3, 0x36, 0x06, 0x3c, 0x06, 0xb6, 0xe1, 0x53, 0x14, 0x2e,
    0xe3, 0xfe, 0x3a, 0xd0, 0x03, 0xdb, 0xf3, 0xe0, 0xc9, 0xe2, 0x4b, 0xd3, 0x6a,
    0x6b, 0xe2, 0xec, 0x27, 0x34, 0x02, 0x0b, 0xee, 0xa9, 0x34, 0x19, 0xf8, 0xb4,
    0xda, 0xc3, 0xe8, 0x2c, 0xfa, 0xff, 0x94, 0x17, 0xe2, 0x60, 0x31, 0xb6, 0x36,
    0x14, 0x2e, 0x2e, 0xe2, 0xa1, 0x0c, 0xee, 0xcb, 0x09, 0xe1, 0xf3, 0x34, 0x24,
    0x0f, 0xc6, 0xe9, 0x30, 0x01, 0x2e, 0x2f, 0x44, 0x26, 0x4a, 0xfb, 0xbc, 0xf6,
    0x22, 0x11, 0x18, 0xf7, 0xed, 0x1b, 0x1c, 0x06, 0xc3, 0x17, 0xe8, 0xe4, 0x3d,
    0x2c, 0x1c, 0xe2, 0xf1, 0x42, 0x21, 0x14, 0xd4, 0x1c, 0xcf, 0xf0, 0x05, 0xe5,
    0xf0, 0xf2, 0x08, 0x22, 0x43, 0xdb, 0x0b, 0xe3, 0x34, 0xfa, 0xff, 0xfd, 0x15,
    0xf1, 0xec, 0xe1, 0xeb, 0xea, 0x06, 0xf0, 0xcf, 0x1f, 0x1c, 0x56, 0xd8, 0x14,
    0xbf, 0x4a, 0xe1, 0x0e, 0xf5, 0x06, 0x07, 0xd2, 0x40, 0x0c, 0x48, 0x17, 0x15,
    0x6c, 0x08, 0xf9, 0xac, 0x37, 0x16, 0x36, 0xff, 0xeb, 0x28, 0xf0, 0x66, 0x0e,
    0xfa, 0xe6, 0x29, 0x17, 0x2d, 0xee, 0xf7, 0xdb, 0x17, 0xfb, 0xd4, 0x19, 0xe1,
    0xe6, 0x35, 0x08, 0x0b, 0xfd, 0x02, 0x7f, 0xb3, 0x2f, 0xe5, 0x0d, 0xcd, 0x12,
    0xf8, 0xf0, 0x07, 0xf6, 0x69, 0x1d, 0x4f, 0xc9, 0xf7, 0x27, 0x0c, 0x14, 0x0d,
    0x2b, 0xff, 0x15, 0xfa, 0xe1, 0x12, 0x03, 0x59, 0xc5, 0xeb, 0xcf, 0xf0, 0x6f,
    0xd8, 0xea, 0xd0, 0xe2, 0x01, 0xef, 0xdc, 0x04, 0x1e, 0x03, 0x4b, 0xf7, 0x27,
    0xd8, 0x05, 0x7d, 0xd5, 0xe9, 0x12, 0x2c, 0xd1, 0xf6, 0x25, 0x2a, 0xdb, 0xf8,
    0x3b, 0xde, 0x32, 0xda, 0x29, 0x28, 0x23, 0x2d, 0xf3, 0xf7, 0xd9, 0x2a, 0x12,
    0xfa, 0x31, 0x10, 0x07, 0x2a, 0x0e, 0x30, 0x0c, 0x1a, 0x51, 0x18, 0xcd, 0x34,
    0x0a, 0xfa, 0xe2, 0x2a, 0x36, 0xe3, 0x1a, 0x1d, 0x09, 0xe2, 0xf2, 0x18, 0x58,
    0xf2, 0xf9, 0x02, 0xef, 0x28, 0x20, 0x06, 0x16, 0xd9, 0x00, 0xeb, 0xdc, 0xfd,
    0xd6, 0x3b, 0xef, 0x7f, 0x27, 0xdd, 0xef, 0xcc, 0xde, 0x19, 0x6b, 0xf1, 0x07,
    0x2f, 0x14, 0xec, 0xc8, 0x0e, 0x46, 0x29, 0xcb, 0x2d, 0xd4, 0x10, 0xfa, 0x2d,
    0x49, 0x02, 0xe5, 0x2d, 0xf6, 0x11, 0x26, 0xfa, 0x13, 0x2c, 0xe0, 0x30, 0x26,
    0x38, 0xd5, 0x2d, 0x03, 0xef, 0x1a, 0x23, 0xe3, 0xf0, 0xef, 0x36, 0x04, 0x63,
    0xed, 0xd4, 0xca, 0x06, 0xdc, 0xfb, 0x1d, 0xdd, 0xc6, 0x06, 0x22, 0xd9, 0xe0,
    0x1d, 0x10, 0x40, 0xde, 0xfe, 0xda, 0xce, 0xda, 0x1a, 0x79, 0xdc, 0x01, 0x21,
    0x1f, 0x15, 0x15, 0xc3, 0xf1, 0x37, 0x34, 0x33, 0x0e, 0x33, 0xdd, 0x09, 0x41,
    0xf0, 0xd9, 0xe4, 0x04, 0x0b, 0xc7, 0xdf, 0x81, 0xb4, 0x4b, 0xb4, 0x23, 0xbc,
    0xcb, 0xd0, 0x29, 0xfc, 0xf6, 0x0d, 0x1b, 0x35, 0xe5, 0x19, 0x8f, 0xd6, 0x16,
    0xa8, 0x0e, 0xbd, 0xd8, 0xb1, 0x36, 0xc3, 0xe1, 0xf2, 0xfa, 0x32, 0xf1, 0x13,
    0xe0, 0x9a, 0x78, 0xcb, 0x1d, 0xfc, 0xc7, 0xa8, 0x45, 0xef, 0x20, 0xff, 0x25,
    0xd4, 0xe4, 0x38, 0x0e, 0x13, 0x42, 0xd6, 0x48, 0xef, 0xeb, 0x07, 0x35, 0xcc,
    0x07, 0x28, 0x1a, 0x4d, 0xb2, 0xf1, 0xd1, 0xba, 0x4a, 0xed, 0x08, 0x10, 0xdd,
    0xcb, 0xd8, 0xd7, 0xdd, 0xd8, 0x29, 0xde, 0x2e, 0x00, 0x12, 0xf0, 0x41, 0x25,
    0x2c, 0xf4, 0x01, 0xdd, 0x10, 0xce, 0xfa, 0xe4, 0xed, 0xf0, 0xd5, 0x0c, 0xf6,
    0x08, 0x52, 0x20, 0x4c, 0x51, 0x1a, 0x1b, 0x62, 0x66, 0x46, 0x3b, 0x1b, 0x13,
    0x17, 0x4f, 0xfa, 0x03, 0xdf, 0xe8, 0x14, 0x19, 0x22, 0x08, 0x29, 0x4c, 0x04,
    0x00, 0x46, 0x15, 0xc1, 0x07, 0x2d, 0xfa, 0xe9, 0x1b, 0xe4, 0x4d, 0x44, 0x0b,
    0xdb, 0xd8, 0xec, 0xf6, 0x55, 0x1a, 0xfc, 0xd8, 0x04, 0xba, 0xf0, 0x15, 0xc1,
    0x17, 0x1e, 0x3c, 0xff, 0xe9, 0xda, 0xf6, 0x18, 0xf0, 0x19, 0xe2, 0x2e, 0xda,
    0xf4, 0x41, 0xee, 0x5a, 0x35, 0x0a, 0xf1, 0x35, 0x17, 0xd6, 0x4e, 0x40, 0x3e,
    0x11, 0x31, 0xe1, 0x77, 0x25, 0xf0, 0x57, 0x32, 0x0e, 0xf9, 0x7f, 0x4f, 0x1d,
    0x22, 0x46, 0xf8, 0xde, 0xed, 0xc1, 0x0c, 0x24, 0xb0, 0xa0, 0x26, 0xde, 0xef,
    0x18, 0xf2, 0xea, 0xf5, 0xd3, 0x1f, 0xb8, 0xef, 0xa4, 0xee, 0xce, 0xc7, 0xc0,
    0x05, 0xf3, 0xe7, 0xfb, 0xe0, 0xb9, 0x3d, 0x07, 0x36, 0xbe, 0xb8, 0xe7, 0x64,
    0xc9, 0xc9, 0xaf, 0xd0, 0x29, 0xc9, 0xcf, 0xfe, 0xbe, 0x1b, 0x4b, 0x4b, 0x96,
    0x1f, 0xf7, 0xf7, 0x22, 0x1f, 0xf0, 0x11, 0x24, 0x06, 0x42, 0xe7, 0xc6, 0xc7,
    0x12, 0xfe, 0x99, 0xf1, 0xf9, 0xba, 0x32, 0xea, 0xed, 0xf2, 0xcc, 0xba, 0x1a,
    0xd5, 0x02, 0x30, 0xdf, 0x2c, 0xc4, 0x12, 0xaa, 0xff, 0x38, 0xd9, 0xf5, 0xc4,
    0x22, 0x16, 0x36, 0x16, 0xf4, 0xed, 0x2d, 0x60, 0x9f, 0x1e, 0xfd, 0xfa, 0x05,
    0xd1, 0x2c, 0xfe, 0x01, 0xea, 0xf0, 0xb4, 0x90, 0x44, 0x3c, 0x6b, 0x16, 0x2f,
    0x37, 0x62, 0x01, 0xc4, 0x3e, 0x29, 0x06, 0xa1, 0x20, 0xd9, 0xa3, 0x7f, 0xf4,
    0x2e, 0x03, 0xda, 0x15, 0xee, 0x20, 0x31, 0xc0, 0x17, 0x07, 0xdf, 0x38, 0xac,
    0xf8, 0x2c, 0x0d, 0xff, 0xbd, 0x3f, 0x03, 0xf2, 0xe0, 0xdc, 0x12, 0xe1, 0xf5,
    0xdc, 0xd5, 0x09, 0xd5, 0xe8, 0x2e, 0xf8, 0x2b, 0x57, 0xf0, 0x19, 0xfa, 0xc8,
    0x1c, 0xdd, 0xa2, 0xcc, 0xe6, 0xe4, 0x39, 0x73, 0x34, 0x0e, 0x3c, 0x57, 0xc3,
    0xc2, 0x1b, 0x21, 0xf4, 0x09, 0x1a, 0x09, 0x2e, 0xff, 0x37, 0xe5, 0x08, 0xb1,
    0x07, 0x0d, 0x0f, 0x34, 0x23, 0xbd, 0xdf, 0xd1, 0x17, 0xf1, 0x56, 0x1d, 0xfd,
    0x0b, 0xfc, 0xc5, 0x3a, 0x1e, 0x02, 0x48, 0x05, 0xba, 0x34, 0x1d, 0xb7, 0x77,
    0x3f, 0xf5, 0x27, 0x26, 0x16, 0xcd, 0x5d, 0x2a, 0xce, 0x0a, 0x47, 0xe9, 0xff,
    0xe1, 0x02, 0x5c, 0x35, 0x33, 0x41, 0x36, 0x42, 0xf4, 0xbe, 0x9f, 0x0b, 0x2b,
    0xce, 0x19, 0x61, 0x07, 0x02, 0x8f, 0xf5, 0xf9, 0xf5, 0xef, 0x0a, 0xe6, 0xdc,
    0x95, 0x15, 0xfb, 0x00, 0x25, 0x46, 0x4b, 0xe9, 0x93, 0x01, 0x18, 0xca, 0x2a,
    0x0d, 0xeb, 0xf7, 0x93, 0xe4, 0x79, 0xc3, 0xdb, 0xfe, 0xd6, 0x22, 0xbc, 0xc9,
    0x40, 0xb3, 0xe6, 0x0f, 0x16, 0xbb, 0xff, 0xd2, 0x7f, 0xc0, 0x4c, 0x1f, 0x3c,
    0xbc, 0xf7, 0xe9, 0x26, 0xcb, 0x3a, 0x01, 0xdc, 0xbc, 0xa7, 0xf9, 0x1c, 0xe4,
    0xd3, 0x09, 0xfe, 0x30, 0xe9, 0x0c, 0x19, 0xb9, 0xb4, 0xc5, 0xf9, 0x9f, 0xa4,
    0xa7, 0xfa, 0xd2, 0xf4, 0xf7, 0x0e, 0xcc, 0x98, 0x81, 0xa5, 0xba, 0x20, 0xf7,
    0xf7, 0x90, 0xc3, 0xd4, 0x0e, 0xca, 0x05, 0xe4, 0x37, 0x05, 0xe0, 0x19, 0x1e,
    0xf0, 0xeb, 0xd5, 0xc6, 0xb3, 0xe3, 0xec, 0x08, 0x09, 0xdb, 0xe6, 0x31, 0x05,
    0x8d, 0xd7, 0xdc, 0xfb, 0x15, 0xe8, 0x02, 0x88, 0xec, 0xc9, 0xf9, 0x12, 0x1f,
    0x13, 0x35, 0xdf, 0xd0, 0xf0, 0xb8, 0xef, 0xde, 0xf1, 0x18, 0xfb, 0xdc, 0xf0,
    0x21, 0x24, 0x0b, 0x02, 0xf2, 0x29, 0xf1, 0xfd, 0x15, 0x11, 0x0a, 0x27, 0x39,
    0x14, 0xf5, 0x0d, 0x6a, 0x0c, 0x08, 0x20, 0x0b, 0x1a, 0xe2, 0x0c, 0x30, 0xd6,
    0x46, 0x39, 0x14, 0xf6, 0xfe, 0x0b, 0x3a, 0xe4, 0x32, 0xc6, 0xf5, 0xf3, 0x0b,
    0x22, 0x2c, 0xe6, 0x3a, 0x36, 0x0d, 0xf4, 0x34, 0x1e, 0x05, 0xfd, 0x27, 0xfd,
    0xd9, 0x25, 0x26, 0x07, 0xeb, 0xff, 0xfa, 0x3f, 0x09, 0x33, 0x1d, 0x26, 0x77,
    0x2a, 0x12, 0x29, 0xf2, 0x00, 0x40, 0x14, 0x19, 0x0d, 0x2e, 0xe4, 0xde, 0x14,
    0x49, 0xfa, 0x28, 0x14, 0x31, 0xfa, 0x02, 0x15, 0x0e, 0xfa, 0xfe, 0x18, 0x0c,
    0xff, 0xf4, 0x1e, 0xd5, 0x08, 0x55, 0xef, 0xf2, 0xc1, 0xdc, 0x02, 0x16, 0xf1,
    0x24, 0x17, 0xf0, 0x19, 0xc5, 0x3d, 0xd2, 0x26, 0x06, 0xeb, 0x0c, 0xd8, 0xf7,
    0xfc, 0x4f, 0xcf, 0xe2, 0xfa, 0x17, 0xc9, 0xbd, 0x16, 0xf7, 0x00, 0x47, 0xf9,
    0xf9, 0xf7, 0x0c, 0xdf, 0x7f, 0x15, 0x08, 0x27, 0xe4, 0x09, 0xe3, 0xde, 0x87,
    0xd5, 0x39, 0xe7, 0x19, 0xb8, 0x3d, 0x15, 0x5f, 0xc1, 0xde, 0x0e, 0xd7, 0x0a,
    0xa0, 0xd9, 0xd2, 0xe7, 0xb2, 0xe6, 0x31, 0x0f, 0x05, 0x05, 0xb9, 0x39, 0x14,
    0xf5, 0x28, 0xff, 0xd1, 0xee, 0xa0, 0xef, 0x0c, 0xb8, 0x35, 0x10, 0xf6, 0xe7,
    0xe1, 0xe7, 0xed, 0xd7, 0xf1, 0x10, 0xca, 0xc0, 0xa4, 0xd2, 0x0e, 0xe6, 0x33,
    0x46, 0x22, 0xf0, 0x30, 0x08, 0x2f, 0x0a, 0x3e, 0xfe, 0xb7, 0xc7, 0xa3, 0xfa,
    0x0f, 0xb5, 0x39, 0x27, 0x0a, 0x3e, 0x15, 0x40, 0x19, 0x17, 0xf2, 0xff, 0xdb,
    0xcd, 0xc8, 0x04, 0xd7, 0xd9, 0xf2, 0x44, 0x1c, 0x04, 0x2e, 0x22, 0x2f, 0x07,
    0xcc, 0x10, 0xcc, 0xa3, 0xd1, 0xf1, 0xfb, 0x9f, 0x16, 0x1d, 0x35, 0x07, 0x04,
    0x49, 0xea, 0x00, 0x0a, 0x40, 0xe8, 0x81, 0xa2, 0x12, 0x29, 0xb9, 0x1b, 0x13,
    0xec, 0x1c, 0x36, 0x3a, 0x09, 0xfe, 0x4f, 0x42, 0xf7, 0xc7, 0xbe, 0xda, 0x12,
    0xff, 0xe0, 0x11, 0xf2, 0x12, 0x0f, 0xd7, 0x06, 0xda, 0xe6, 0x15, 0xcc, 0x2f,
    0x0f, 0xb7, 0xda, 0x17, 0xdd, 0x0f, 0x06, 0xed, 0xc4, 0xf3, 0xbc, 0x39, 0xcf,
    0xe7, 0xec, 0xee, 0x33, 0xf5, 0xf5, 0xfb, 0xf4, 0x30, 0x1e, 0xfc, 0xd6, 0xef,
    0x03, 0x34, 0x21, 0xfd, 0xe2, 0x06, 0xdb, 0xf2, 0xc6, 0xda, 0x0d, 0x26, 0x21,
    0x16, 0x44, 0x4f, 0xf7, 0x1d, 0x25, 0x59, 0x19, 0x1d, 0xef, 0xf3, 0xff, 0xd6,
    0xde, 0x30, 0xea, 0x06, 0x2e, 0x28, 0x02, 0x11, 0x46, 0x13, 0x02, 0x48, 0xcc,
    0xe0, 0xf8, 0xfb, 0x29, 0x12, 0x27, 0x2b, 0xff, 0x52, 0x1b, 0x17, 0x26, 0x7f,
    0xdd, 0x0f, 0xb6, 0x03, 0xfb, 0xe1, 0xdd, 0xe1, 0x05, 0xfb, 0x0f, 0x4e, 0x2f,
    0x1c, 0x30, 0x77, 0x23, 0xfa, 0xee, 0xfb, 0xf6, 0xed, 0x10, 0xf5, 0x00, 0xd8,
    0xf3, 0xea, 0x35, 0xe3, 0x62, 0x49, 0x05, 0x15, 0xec, 0xc6, 0x0a, 0xff, 0xe5,
    0x08, 0xd1, 0x1a, 0x23, 0x16, 0x3c, 0xec, 0x44, 0x53, 0xc1, 0xf9, 0xd2, 0xc0,
    0xfd, 0x0a, 0xc8, 0x9f, 0xf7, 0xc1, 0xe7, 0xef, 0xe0, 0x26, 0xf2, 0x30, 0x28,
    0x01, 0xe1, 0x0c, 0x03, 0x09, 0x19, 0xfa, 0xeb, 0x16, 0x28, 0x19, 0xd2, 0xc6,
    0x02, 0x57, 0x27, 0xc6, 0x3d, 0x24, 0x0c, 0xcc, 0xfb, 0xe5, 0xe1, 0x30, 0x1d,
    0x1d, 0xd7, 0xe0, 0x41, 0x03, 0x3a, 0x24, 0x36, 0x40, 0x05, 0xe5, 0x06, 0xf6,
    0xfb, 0x1c, 0x5f, 0xca, 0x1e, 0x18, 0x0a, 0xf1, 0x47, 0x15, 0x08, 0x20, 0xd2,
    0xf2, 0x2b, 0xf0, 0x02, 0xe7, 0x0b, 0xee, 0xd6, 0x12, 0x06, 0x32, 0x16, 0xde,
    0x0b, 0xed, 0xd7, 0x16, 0x22, 0x14, 0xfc, 0x2e, 0xdc, 0x00, 0xd3, 0x29, 0x18,
    0xec, 0x1d, 0x0b, 0x37, 0x14, 0x2b, 0xf3, 0xfb, 0x21, 0x02, 0xe2, 0x26, 0x2b,
    0xfe, 0x14, 0x23, 0xfb, 0x17, 0x0f, 0xdc, 0x54, 0x45, 0x1f, 0xea, 0xe7, 0xd1,
    0xea, 0x7f, 0xe1, 0xea, 0x1f, 0x09, 0xfe, 0x21, 0x21, 0x31, 0x03, 0x55, 0x37,
    0x01, 0xff, 0xfd, 0xd6, 0x53, 0x23, 0x0c, 0x0e, 0x0c, 0xdf, 0xf5, 0xfe, 0x40,
    0x11, 0x50, 0x10, 0x2b, 0x0e, 0xf3, 0x08, 0x27, 0xe7, 0xdb, 0x10, 0x0a, 0xf7,
    0x10, 0x33, 0x12, 0x05, 0x20, 0xe5, 0x00, 0xbd, 0xc4, 0xe8, 0xd0, 0x1f, 0xfd,
    0xe7, 0x2a, 0x2e, 0xf5, 0x0e, 0x37, 0x10, 0x31, 0x43, 0xfe, 0x55, 0xfd, 0xd2,
    0xe0, 0x60, 0x27, 0xeb, 0x19, 0x23, 0xd2, 0x14, 0xf5, 0xdd, 0x06, 0xef, 0x38,
    0x24, 0xd4, 0x01, 0xf9, 0x0e, 0x2f, 0x17, 0xe7, 0x0e, 0x24, 0x2d, 0x03, 0x14,
    0xa3, 0xfd, 0xe4, 0x19, 0x0d, 0xef, 0x90, 0x18, 0xf5, 0x1c, 0xe8, 0xe9, 0x1d,
    0x23, 0x44, 0xee, 0x2e, 0x32, 0x12, 0x33, 0x16, 0x1b, 0x81, 0x36, 0xf9, 0xe9,
    0x1d, 0x48, 0xec, 0x3b, 0xe6, 0xed, 0x1a, 0x31, 0x1a, 0xfb, 0x10, 0xe9, 0x0a,
    0x3f, 0x27, 0x1d, 0x29, 0x41, 0xe9, 0x0b, 0x1f, 0xcb, 0x06, 0x07, 0xdc, 0xea,
    0x2b, 0x13, 0xda, 0x2a, 0x29, 0x3a, 0xf0, 0xfa, 0xf0, 0x43, 0xc7, 0x04, 0x4c,
    0xd0, 0xee, 0x02, 0xf3, 0xee, 0xdc, 0xdf, 0xfb, 0xdc, 0x0e, 0x4f, 0xfb, 0xed,
    0x18, 0xdf, 0x22, 0xcc, 0xee, 0xc8, 0x20, 0x0b, 0x1b, 0x4e, 0xf6, 0xe8, 0xe8,
    0x51, 0x36, 0xbb, 0xfc, 0xd2, 0x3d, 0xf3, 0xe7, 0x33, 0x01, 0xad, 0xac, 0x05,
    0xc8, 0xd3, 0xf2, 0xeb, 0x53, 0xbd, 0x16, 0x1b, 0xfb, 0x23, 0x0b, 0x20, 0x3a,
    0xdb, 0xe8, 0xe3, 0x0d, 0xfb, 0x0e, 0xe9, 0x60, 0xfc, 0xb8, 0x26, 0x02, 0xd7,
    0xf2, 0x02, 0x24, 0x26, 0xeb, 0x0c, 0x05, 0x0c, 0x00, 0xdc, 0x55, 0xee, 0x01,
    0xc5, 0x48, 0xb1, 0xd5, 0xd3, 0xfe, 0xa8, 0x10, 0xb6, 0xd9, 0xb7, 0xf4, 0x3b,
    0x55, 0xe0, 0xeb, 0xd4, 0x07, 0xda, 0x3f, 0x36, 0x10, 0x21, 0xf5, 0xd4, 0x04,
    0xc7, 0x47, 0x2f, 0x46, 0xf7, 0x14, 0x3d, 0x58, 0xe3, 0x29, 0xd3, 0x01, 0xe3,
    0x3b, 0x05, 0x05, 0xad, 0x1f, 0x53, 0x14, 0xda, 0xc3, 0xff, 0x1b, 0xd2, 0x0c,
    0xf7, 0xad, 0xa7, 0xbf, 0x01, 0xbf, 0xcc, 0xfb, 0xfe, 0x7f, 0x12, 0xea, 0x0a,
    0x0b, 0xe7, 0x3f, 0x35, 0x16, 0xfe, 0x3f, 0xc4, 0xce, 0xcb, 0xe1, 0xce, 0x51,
    0xfe, 0xdc, 0x21, 0x38, 0xab, 0xec, 0xeb, 0x30, 0x10, 0x47, 0xe9, 0xfd, 0xdf,
    0xe9, 0x22, 0x03, 0xff, 0xc3, 0xef, 0x31, 0xb5, 0xd5, 0x36, 0x16, 0x22, 0xce,
    0x0e, 0x1b, 0xee, 0x7b, 0x1b, 0xd3, 0xcd, 0x04, 0xf1, 0x59, 0xce, 0x0a, 0x09,
    0x39, 0x2c, 0xd9, 0xf5, 0x1a, 0x04, 0xdf, 0xfa, 0x05, 0xee, 0x0a, 0xc4, 0x6d,
    0x13, 0x4a, 0xd4, 0xdc, 0xc9, 0xec, 0x1d, 0x38, 0xd6, 0xe1, 0x46, 0x06, 0xa6,
    0xab, 0xf4, 0x22, 0x06, 0x46, 0x3f, 0x2b, 0xb0, 0xf3, 0xdb, 0x0c, 0xa3, 0x74,
    0x18, 0xa3, 0x06, 0xb9, 0xf2, 0x01, 0x0d, 0xd9, 0x45, 0x17, 0xbc, 0x1d, 0x9a,
    0x20, 0xdc, 0x1f, 0xf3, 0xfc, 0xed, 0xe7, 0xe3, 0xf9, 0xce, 0xea, 0x03, 0x35,
    0xcf, 0xbc, 0x22, 0xc8, 0xb8, 0x11, 0xd7, 0xcd, 0x81, 0x08, 0x15, 0x3e, 0xdb,
    0xea, 0x19, 0x19, 0x16, 0x8b, 0xcb, 0xc2, 0xa2, 0xd8, 0x34, 0xa2, 0xd2, 0x10,
    0xd3, 0x34, 0x10, 0x3e, 0x44, 0x0b, 0xec, 0x92, 0xad, 0xa6, 0xce, 0xf9, 0x08,
    0xe1, 0xc2, 0xef, 0x19, 0xff, 0xe8, 0x35, 0x3a, 0x3a, 0x27, 0xb0, 0x3a, 0xdf,
    0xf1, 0x27, 0xf1, 0xda, 0xd8, 0xa5, 0x15, 0xe2, 0xeb, 0xe8, 0xe4, 0x2a, 0x1e,
    0x97, 0xf0, 0x44, 0x17, 0x2d, 0x13, 0xb5, 0xed, 0xe1, 0xfb, 0x01, 0x27, 0x3e,
    0xf5, 0x26, 0x15, 0xad, 0xf5, 0x35, 0x17, 0xe5, 0xd0, 0xe6, 0x1c, 0xac, 0xf9,
    0x30, 0x20, 0xd8, 0x4a, 0x1e, 0x38, 0xe8, 0xed, 0xf7, 0xe8, 0x47, 0xcc, 0xbb,
    0xda, 0xf6, 0x06, 0x40, 0xde, 0x4c, 0x00, 0x1d, 0xe3, 0xc1, 0x1d, 0x2a, 0x02,
    0xcb, 0x41, 0xe1, 0x55, 0x93, 0xa6, 0x1a, 0xdf, 0x3e, 0x06, 0xd9, 0xfe, 0xbf,
    0x04, 0x48, 0x04, 0x57, 0x50, 0xee, 0x41, 0x81, 0xd8, 0x03, 0x01, 0xcf, 0xe7,
    0x27, 0xd8, 0xbe, 0x0d, 0x0a, 0xe9, 0x0b, 0xf6, 0xd2, 0xe2, 0xcb, 0x0e, 0xd8,
    0x02, 0x36, 0x1e, 0x12, 0x0f, 0xc9, 0x0a, 0x30, 0xe0, 0x09, 0x3d, 0xf1, 0x4d,
    0x9b, 0xbf, 0x0e, 0xd6, 0x3c, 0x19, 0xd0, 0xf1, 0x9b, 0x03, 0x30, 0xd7, 0x4c,
    0xe8, 0xdc, 0xf9, 0xa9, 0xec, 0xd2, 0xd5, 0x44, 0x23, 0xe2, 0xf1, 0xe2, 0x0a,
    0x4c, 0xd1, 0x4f, 0x3b, 0x0d, 0x34, 0xc8, 0x05, 0xeb, 0xfa, 0xfd, 0x0f, 0x0a,
    0xd2, 0xd1, 0xf1, 0xc2, 0x2e, 0xe5, 0x27, 0xb0, 0xfb, 0xdd, 0xb8, 0x8d, 0xff,
    0xfb, 0xe9, 0xe5, 0xdf, 0x98, 0xaf, 0xda, 0x2e, 0xdd, 0xc2, 0xdc, 0x22, 0x1e,
    0xb1, 0xe3, 0x0b, 0x01, 0xe5, 0xcc, 0x08, 0x15, 0xf2, 0x00, 0x25, 0xb6, 0xec,
    0xdc, 0x0c, 0xce, 0xec, 0x00, 0x10, 0x2c, 0x0f, 0x2a, 0xeb, 0xbf, 0xb6, 0xcb,
    0x19, 0xcd, 0xca, 0xf3, 0xe8, 0xbc, 0x28, 0x81, 0xcd, 0x2c, 0xe2, 0x28, 0xfc,
    0xa4, 0x14, 0xd2, 0x1c, 0xf3, 0xa9, 0xf5, 0x0e, 0xf0, 0xff, 0x00, 0x10, 0x24,
    0x23, 0xd9, 0x09, 0xe8, 0x0e, 0xf9, 0x07, 0xe9, 0x06, 0xcf, 0x09, 0xef, 0xd2,
    0x54, 0xc6, 0x45, 0x23, 0x22, 0x03, 0xeb, 0x08, 0x18, 0x3f, 0x2c, 0x13, 0xdd,
    0xfa, 0xa3, 0xd2, 0xec, 0xe0, 0x44, 0xda, 0x40, 0x07, 0xd5, 0x2a, 0x1f, 0x13,
    0xb2, 0xc0, 0xeb, 0x1b, 0xcf, 0xdd, 0xa7, 0xf2, 0x3a, 0x09, 0x1d, 0x1e, 0x02,
    0x44, 0x41, 0x41, 0xc4, 0xf1, 0x51, 0x2e, 0xbc, 0xd0, 0x3f, 0x00, 0x2e, 0x12,
    0x39, 0xf3, 0x09, 0xb5, 0x38, 0x2b, 0x01, 0xde, 0x39, 0xe1, 0xda, 0xf7, 0x7f,
    0x26, 0x24, 0xd9, 0xff, 0xce, 0xec, 0xae, 0x3d, 0x3c, 0xb8, 0xb9, 0x17, 0x00,
    0x95, 0xb3, 0xee, 0xec, 0x42, 0xb5, 0xf3, 0x2e, 0x9f, 0xe6, 0x22, 0x13, 0x25,
    0x2c, 0x13, 0xdf, 0x94, 0xf9, 0xec, 0xf7, 0xfe, 0xfa, 0x19, 0xff, 0xcc, 0xbe,
    0x3f, 0x02, 0x2b, 0x1c, 0x3e, 0xcd, 0x07, 0xe5, 0xfd, 0xe1, 0x42, 0xe6, 0xee,
    0x02, 0xf2, 0xca, 0x14, 0x2c, 0xe4, 0xeb, 0xea, 0xfa, 0xd8, 0xdd, 0xcb, 0x18,
    0x41, 0x1a, 0xed, 0xe3, 0x11, 0x2d, 0x32, 0x36, 0xc7, 0x1f, 0xfc, 0xcc, 0x8f,
    0xb3, 0xf9, 0x10, 0x09, 0xba, 0x3c, 0x1f, 0xce, 0xb7, 0x00, 0x18, 0x14, 0xe6,
    0xf1, 0xf0, 0xed, 0x9c, 0xbf, 0xd8, 0xf1, 0xd3, 0x25, 0xe2, 0x1f, 0xfb, 0x2d,
    0x23, 0xb2, 0xd0, 0x19, 0x15, 0xf6, 0xc4, 0x1a, 0xb4, 0x2d, 0xd7, 0xd9, 0xc3,
    0x26, 0xfa, 0x41, 0xc7, 0x24, 0xec, 0x0e, 0xf3, 0x22, 0xf7, 0x14, 0x43, 0xf2,
    0x30, 0xed, 0x0d, 0xef, 0x75, 0x08, 0x0f, 0xf5, 0xfa, 0xd7, 0xf9, 0xfc, 0x9e,
    0x25, 0x3a, 0xc0, 0x25, 0xff, 0x1e, 0x08, 0x57, 0xdb, 0x1c, 0x1c, 0x32, 0x16,
    0xfd, 0x28, 0xde, 0x4a, 0x3c, 0xb5, 0x7f, 0x25, 0x1b, 0xe1, 0x2a, 0x1a, 0x31,
    0x58, 0x12, 0xbc, 0x2e, 0xd7, 0xa9, 0xfb, 0xfb, 0xde, 0xcc, 0xd9, 0xe6, 0xe7,
    0x5a, 0x19, 0x32, 0x06, 0x41, 0xd1, 0xeb, 0xf8, 0x83, 0xf8, 0x0b, 0xb4, 0xab,
    0xf3, 0xad, 0xf6, 0xfd, 0xc9, 0x08, 0xd0, 0xce, 0x35, 0xda, 0x22, 0xdc, 0x1a,
    0x0a, 0xa2, 0x02, 0xf7, 0xb4, 0xcd, 0xbc, 0xcf, 0x1e, 0x56, 0x09, 0xdf, 0x25,
    0xe4, 0xb4, 0x22, 0x34, 0xe9, 0xed, 0xdc, 0xd0, 0xc9, 0x3a, 0xf4, 0x0a, 0xf4,
    0xfa, 0xc5, 0x05, 0xcd, 0xa0, 0xf8, 0x34, 0xd9, 0x00, 0x13, 0xa4, 0xdd, 0xa8,
    0xbb, 0x12, 0xb2, 0xe5, 0xc1, 0xf4, 0xe5, 0xe0, 0xfc, 0x0f, 0xfd, 0x0f, 0xf2,
    0xab, 0xce, 0xf0, 0xfa, 0xfd, 0xfa, 0xc4, 0xec, 0x14, 0x29, 0xea, 0xc2, 0x1e,
    0xee, 0x21, 0x24, 0xf2, 0xf7, 0x0b, 0x00, 0x15, 0x33, 0x04, 0x07, 0x9f, 0x23,
    0x2d, 0xd1, 0x2b, 0x2a, 0x03, 0x3d, 0x25, 0xcb, 0x52, 0xee, 0xc4, 0xe2, 0xd4,
    0xfe, 0xf4, 0x09, 0x1a, 0x81, 0x0a, 0x23, 0x4e, 0xfb, 0x44, 0xbe, 0x4a, 0x00,
    0x05, 0xe7, 0x34, 0xdd, 0xd7, 0x43, 0xb6, 0x09, 0xee, 0x03, 0x36, 0xe6, 0x9b,
    0xff, 0x12, 0xb4, 0xf9, 0x12, 0x54, 0xc0, 0xfa, 0x25, 0x95, 0x08, 0xf7, 0xfd,
    0x49, 0x05, 0xdb, 0x26, 0x4b, 0xc3, 0x03, 0x5d, 0x64, 0x1f, 0xcb, 0x19, 0xe6,
    0x30, 0xbc, 0x04, 0x09, 0x39, 0x34, 0x51, 0x5a, 0xd0, 0xe0, 0x1e, 0x6e, 0xb6,
    0x27, 0xc9, 0xc4, 0x93, 0xd3, 0xa4, 0xd7, 0xcf, 0xd0, 0xe6, 0x0d, 0xbd, 0x53,
    0xbd, 0x2a, 0xdd, 0xeb, 0xf9, 0x8c, 0xd1, 0xde, 0xb9, 0xe2, 0xf3, 0x98, 0x1c,
    0xf1, 0xd5, 0x3c, 0x18, 0x2a, 0xd9, 0xd9, 0x4d, 0x0c, 0xf5, 0xf9, 0x21, 0x59,
    0x08, 0xc2, 0x12, 0x14, 0xd4, 0xc0, 0x5d, 0x28, 0x4f, 0x27, 0x0b, 0x48, 0x11,
    0x37, 0x26, 0x66, 0xca, 0xe5, 0x03, 0xf2, 0x2b, 0xd6, 0xb3, 0xd6, 0x27, 0x08,
    0x1e, 0x4d, 0x63, 0xe0, 0xcb, 0x02, 0x48, 0xe0, 0x55, 0xbe, 0x05, 0xb9, 0xbc,
    0xb4, 0xc6, 0xae, 0xe5, 0xe2, 0x0c, 0x54, 0x49, 0x55, 0x24, 0xda, 0x73, 0xf9,
    0xb8, 0x18, 0xc0, 0xc4, 0x43, 0xc4, 0x08, 0x07, 0x5c, 0x57, 0x2b, 0x7f, 0x0e,
    0xa3, 0xc6, 0xb7, 0x08, 0x24, 0xf4, 0x11, 0x2e, 0x33, 0xf0, 0xdd, 0x3b, 0x4d,
    0xec, 0x30, 0x04, 0xe3, 0xd2, 0xc0, 0xdf, 0x2c, 0xab, 0xc5, 0xc3, 0x16, 0x21,
    0x42, 0x53, 0x25, 0xda, 0xd5, 0xd0, 0xec, 0x3d, 0xad, 0x97, 0x3b, 0xd5, 0x1e,
    0x56, 0x20, 0x3e, 0x54, 0x38, 0xeb, 0x1b, 0x13, 0xf8, 0x8d, 0x66, 0xb4, 0xc5,
    0x4d, 0x3c, 0xce, 0x30, 0x25, 0x2c, 0xdc, 0x41, 0x44, 0x4f, 0xe0, 0xff, 0x0f,
    0x48, 0xd0, 0x1e, 0xfb, 0xda, 0xef, 0xfa, 0xba, 0xd3, 0x08, 0x18, 0xef, 0xde,
    0x42, 0x1c, 0xc9, 0x08, 0x09, 0x9c, 0x0a, 0xb6, 0x08, 0x52, 0xfd, 0x37, 0x29,
    0x08, 0x60, 0x2e, 0xee, 0xbe, 0x49, 0xad, 0xfc, 0x82, 0x35, 0xf9, 0xfa, 0x28,
    0x1f, 0xfa, 0x59, 0x9f, 0x2f, 0x06, 0xef, 0xd8, 0x06, 0xf5, 0xb8, 0xa8, 0xad,
    0x21, 0xf7, 0x0c, 0xb3, 0xaf, 0x4f, 0xfe, 0xe8, 0x2f, 0xfd, 0x19, 0x01, 0x1a,
    0xf4, 0x28, 0x00, 0x35, 0x3a, 0x3e, 0xef, 0x6e, 0xb2, 0xa5, 0xff, 0xd8, 0x51,
    0xea, 0x0c, 0xf4, 0x14, 0xa7, 0x47, 0x07, 0x42, 0x2b, 0xcb, 0x2c, 0x3d, 0xcf,
    0x18, 0xf9, 0x6b, 0xe3, 0x22, 0xd5, 0x2a, 0x13, 0xb6, 0x64, 0xef, 0x5b, 0x76,
    0x6c, 0xeb, 0x39, 0xcf, 0xfd, 0x48, 0xd8, 0x46, 0xe8, 0x0a, 0x10, 0xb9, 0xf5,
    0x07, 0xce, 0x3f, 0xdb, 0x3c, 0xd9, 0xdc, 0x0f, 0x16, 0x20, 0xdf, 0x5a, 0x17,
    0x0a, 0x38, 0xe4, 0x17, 0x0d, 0x77, 0x7f, 0x13, 0xde, 0xf1, 0xe5, 0x13, 0x0e,
    0x1f, 0xdc, 0xc7, 0x3c, 0x1e, 0xe4, 0xd7, 0x1b, 0x71, 0x0f, 0xea, 0x04, 0x48,
    0xdd, 0x19, 0xc4, 0xd2, 0xf3, 0x20, 0x4d, 0x20, 0xf2, 0x23, 0x46, 0xd7, 0xff,
    0xff, 0x04, 0x00, 0x00, 0x00, 0x80, 0x00, 0x00, 0x00, 0x44, 0x12, 0x00, 0x00,
    0x90, 0x01, 0x00, 0x00, 0xec, 0xfe, 0xff, 0xff, 0x1c, 0xe2, 0xff, 0xff, 0x68,
    0x09, 0x00, 0x00, 0x4a, 0xe8, 0xff, 0xff, 0x92, 0xef, 0xff, 0xff, 0xd7, 0x16,
    0x00, 0x00, 0x20, 0xfd, 0xff, 0xff, 0x1f, 0x0e, 0x00, 0x00, 0x54, 0xf9, 0xff,
    0xff, 0x3f, 0xe9, 0xff, 0xff, 0xc4, 0xff, 0xff, 0xff, 0xf3, 0xf4, 0xff, 0xff,
    0x38, 0x08, 0x00, 0x00, 0xe5, 0x0f, 0x00, 0x00, 0x97, 0xec, 0xff, 0xff, 0x8a,
    0x1a, 0x00, 0x00, 0xfd, 0xfd, 0xff, 0xff, 0xbc, 0x0c, 0x00, 0x00, 0x9f, 0xea,
    0xff, 0xff, 0x90, 0xf0, 0xff, 0xff, 0xa0, 0xea, 0xff, 0xff, 0x5a, 0xf3, 0xff,
    0xff, 0xa2, 0x05, 0x00, 0x00, 0xab, 0x08, 0x00, 0x00, 0xd2, 0xfa, 0xff, 0xff,
    0x79, 0x10, 0x00, 0x00, 0x63, 0x16, 0x00, 0x00, 0xb4, 0xe7, 0xff, 0xff, 0x0e,
    0x16, 0x00, 0x00, 0xfa, 0xe6, 0xff, 0xff, 0xd2, 0xd7, 0xff, 0xff, 0x04, 0x00,
    0x00, 0x00, 0x00, 0x28, 0x00, 0x00, 0xdb, 0xd6, 0x08, 0xec, 0xf8, 0xfd, 0xea,
    0xfb, 0x0b, 0xdf, 0x00, 0xf8, 0x03, 0xf8, 0x24, 0xd9, 0xf6, 0x03, 0xe9, 0x0c,
    0x25, 0x10, 0xf8, 0xfe, 0x13, 0xff, 0x0a, 0xff, 0xc9, 0xe3, 0xdf, 0xeb, 0x15,
    0xed, 0x08, 0x01, 0xec, 0x0f, 0xe6, 0x05, 0x1e, 0xf5, 0x09, 0x16, 0xe3, 0x19,
    0xf9, 0xdd, 0x08, 0xf5, 0x19, 0x1d, 0xf3, 0x0e, 0x02, 0xed, 0xf8, 0xfd, 0x0e,
    0xfd, 0xe0, 0xf7, 0xff, 0x05, 0x0a, 0xfa, 0x28, 0xee, 0xec, 0x01, 0xf7, 0xef,
    0x22, 0xfb, 0x19, 0x18, 0x2e, 0xf8, 0x22, 0xed, 0xe2, 0x03, 0xf3, 0x0d, 0xf0,
    0xf3, 0xfd, 0xde, 0x17, 0xf6, 0x0e, 0x01, 0x24, 0x1c, 0xfc, 0xf5, 0x12, 0x16,
    0xf7, 0xeb, 0x09, 0x1c, 0xec, 0xee, 0x2b, 0xf6, 0x14, 0x16, 0xf9, 0x16, 0xfd,
    0xe6, 0xf1, 0x09, 0xde, 0x0e, 0xf0, 0xe3, 0x08, 0x05, 0xfb, 0x01, 0x10, 0x0e,
    0x10, 0xfb, 0xf8, 0xf8, 0x12, 0x07, 0xff, 0xe6, 0x03, 0x07, 0xf8, 0xff, 0x02,
    0xfa, 0xee, 0x11, 0x0e, 0xee, 0xe1, 0xe0, 0xe2, 0xe6, 0x07, 0x1f, 0xee, 0x08,
    0xe7, 0xee, 0xf0, 0xe5, 0x04, 0x01, 0x10, 0xc8, 0xfc, 0xe5, 0xfb, 0x04, 0xd8,
    0xed, 0xfb, 0xf1, 0x01, 0xf6, 0x3e, 0x07, 0x00, 0x01, 0x1a, 0x1a, 0xe4, 0xff,
    0xfc, 0xf5, 0x1e, 0x07, 0x16, 0xf4, 0x01, 0xf9, 0xf1, 0xcd, 0xf2, 0x10, 0x38,
    0x18, 0x01, 0x07, 0xfe, 0x0e, 0x14, 0xfe, 0x06, 0x17, 0xfc, 0xdb, 0x24, 0xf9,
    0xfe, 0x29, 0x0f, 0x05, 0xcb, 0xe7, 0xf9, 0xff, 0x03, 0x27, 0x2c, 0x01, 0xfb,
    0xeb, 0x08, 0xf9, 0xfa, 0x18, 0x0c, 0x17, 0xef, 0xef, 0xf5, 0x06, 0x05, 0xe4,
    0xf3, 0xfa, 0xed, 0xfb, 0x01, 0xfc, 0x1d, 0xea, 0x41, 0x02, 0xfd, 0xe7, 0x09,
    0xf2, 0x16, 0xef, 0xe4, 0x08, 0xea, 0xde, 0xe5, 0x15, 0xe8, 0xf3, 0x07, 0xf1,
    0xe7, 0xe9, 0xec, 0x22, 0x15, 0x07, 0xf9, 0x20, 0xf8, 0x07, 0xf0, 0x12, 0xeb,
    0x30, 0xee, 0xfe, 0x10, 0x04, 0xf1, 0x16, 0x06, 0x19, 0xfe, 0x05, 0x24, 0x0a,
    0x07, 0x11, 0xfa, 0xf2, 0x1d, 0x19, 0xf9, 0x13, 0xf9, 0xf3, 0xf1, 0x04, 0x05,
    0x32, 0x06, 0xf8, 0xf1, 0x12, 0xe4, 0xfb, 0xd7, 0x09, 0x06, 0xfa, 0x00, 0x00,
    0x00, 0xf2, 0xd2, 0xf3, 0x0c, 0xf4, 0x0c, 0xe8, 0xfb, 0xec, 0x10, 0x21, 0x12,
    0x0c, 0xfc, 0xf2, 0xe9, 0xfd, 0xee, 0x3d, 0xf9, 0xfc, 0xe5, 0xe7, 0xf5, 0x24,
    0xf9, 0xf7, 0x24, 0xf4, 0xec, 0xfa, 0xca, 0x17, 0x00, 0xfd, 0x2d, 0xf1, 0x03,
    0xff, 0x10, 0xef, 0x3c, 0x0f, 0x0c, 0xf5, 0x17, 0xfc, 0xe4, 0xfa, 0xf2, 0x2f,
    0x17, 0xfa, 0xea, 0xec, 0xf4, 0x1c, 0xd2, 0xf1, 0x03, 0x04, 0xf4, 0xf6, 0xd1,
    0x07, 0xea, 0xdf, 0x01, 0xfb, 0xf8, 0xeb, 0x00, 0xf6, 0xff, 0x25, 0xdd, 0x00,
    0x1e, 0x03, 0xfb, 0xf1, 0x01, 0x0e, 0xf2, 0xdc, 0xd2, 0xf9, 0x0f, 0x2e, 0xf4,
    0xd7, 0xb5, 0x10, 0xdd, 0x14, 0xa6, 0x07, 0xe7, 0xf5, 0x00, 0xf1, 0x06, 0x0c,
    0xf3, 0xf2, 0x09, 0x19, 0x03, 0x0b, 0x0a, 0xdc, 0xe1, 0xf8, 0xf3, 0xf6, 0xf1,
    0xe8, 0xf1, 0xe8, 0x18, 0xf0, 0x09, 0xe3, 0xb4, 0x00, 0xe1, 0xfe, 0xdc, 0xf4,
    0x01, 0xe7, 0xda, 0xfd, 0xe3, 0x0d, 0xed, 0xfc, 0x31, 0x33, 0xf5, 0xf2, 0x05,
    0xfb, 0xe2, 0x04, 0xf9, 0x0a, 0x04, 0xd8, 0xf0, 0xf1, 0xe2, 0xee, 0x13, 0xec,
    0xe0, 0xfa, 0xea, 0xff, 0xe9, 0xf1, 0xfb, 0xe9, 0xff, 0xf5, 0xf9, 0xdd, 0xfd,
    0x06, 0x1e, 0x32, 0xe4, 0xf1, 0xf7, 0x07, 0x07, 0x09, 0xf7, 0x2c, 0xf8, 0xf4,
    0x10, 0xf8, 0x06, 0xf9, 0x15, 0x02, 0xf6, 0xe9, 0xd9, 0xe6, 0x12, 0xfe, 0xdc,
    0xf5, 0xf9, 0xed, 0x01, 0x07, 0xf7, 0x02, 0xec, 0xe7, 0xe4, 0xf6, 0x04, 0x1d,
    0x18, 0x16, 0xfb, 0x36, 0x23, 0xe6, 0xf5, 0xf1, 0xe4, 0xf9, 0xe9, 0x09, 0x3f,
    0xf7, 0xe9, 0x11, 0xe1, 0xf8, 0x01, 0xf5, 0x08, 0x14, 0x04, 0xf7, 0x0c, 0xf9,
    0xee, 0x19, 0x07, 0x12, 0xef, 0xf6, 0xee, 0x18, 0xfa, 0x3c, 0x10, 0xe9, 0xd5,
    0x10, 0xf5, 0xf2, 0xca, 0x09, 0xe9, 0x09, 0xe9, 0x17, 0xbc, 0xe8, 0xf9, 0xf2,
    0x0b, 0xf9, 0x0e, 0xf5, 0x0f, 0xfd, 0x03, 0x32, 0xff, 0xfa, 0x00, 0xfe, 0xf9,
    0x1c, 0xfc, 0x30, 0x07, 0x01, 0xcb, 0xe8, 0x06, 0x2c, 0xd7, 0x11, 0xe6, 0xee,
    0xe6, 0x09, 0xd8, 0x08, 0x00, 0xf3, 0x09, 0xfd, 0x0b, 0x0e, 0xf4, 0xf0, 0x0a,
    0x22, 0x06, 0x00, 0x09, 0xe9, 0xc3, 0x13, 0xfe, 0x18, 0x05, 0xf2, 0xc6, 0x11,
    0xec, 0xe2, 0xc1, 0xe9, 0xc7, 0xf6, 0xfc, 0xfa, 0xe9, 0xe2, 0x10, 0x18, 0x10,
    0x0e, 0x03, 0xd5, 0x01, 0xf2, 0xff, 0x36, 0x0d, 0x11, 0x02, 0x08, 0xc8, 0xfa,
    0x0e, 0x17, 0xf8, 0xfc, 0xc7, 0x01, 0xe8, 0x10, 0xd2, 0x04, 0x17, 0xfa, 0x12,
    0x0c, 0xe7, 0xf2, 0x00, 0x0e, 0x00, 0x08, 0xf1, 0xdc, 0x03, 0x12, 0x2a, 0x4e,
    0xff, 0x01, 0x0f, 0x08, 0x05, 0x07, 0x06, 0x1d, 0x0a, 0xee, 0xbd, 0x06, 0x01,
    0x0a, 0x08, 0xea, 0x18, 0xec, 0xf4, 0x06, 0x12, 0x0e, 0xf7, 0xee, 0xe9, 0xf9,
    0x04, 0x14, 0xfc, 0x0d, 0x36, 0x3a, 0xf0, 0xf4, 0x0d, 0x09, 0x0c, 0x01, 0x0e,
    0x12, 0x26, 0xed, 0xf9, 0x02, 0x01, 0xed, 0xe9, 0x10, 0xf2, 0xf0, 0x06, 0xfa,
    0xc3, 0xf8, 0x09, 0xfb, 0x0a, 0x02, 0xee, 0xfc, 0xf4, 0xf8, 0x15, 0x27, 0x0f,
    0x07, 0xed, 0xff, 0x00, 0xf6, 0xfb, 0x18, 0xff, 0xf5, 0x07, 0xf0, 0x09, 0x00,
    0x03, 0xfa, 0xe2, 0x0e, 0xd4, 0xf6, 0xec, 0x19, 0x10, 0x05, 0x05, 0x05, 0xee,
    0x27, 0x18, 0x14, 0xfb, 0xf6, 0xdb, 0x0c, 0xfa, 0x09, 0x07, 0x02, 0xfe, 0x26,
    0x2e, 0xec, 0xc2, 0x03, 0xcb, 0xf0, 0xb9, 0xeb, 0x0a, 0xf3, 0x09, 0x04, 0x13,
    0xff, 0xfb, 0x17, 0xfc, 0x01, 0x14, 0xf2, 0x0d, 0xf8, 0xeb, 0x1c, 0x18, 0xfb,
    0xed, 0x07, 0xce, 0x1b, 0xf4, 0x08, 0x14, 0x0d, 0xd4, 0x1c, 0xee, 0xe3, 0xba,
    0xfd, 0xe1, 0xfb, 0x1d, 0x14, 0xf5, 0xf8, 0x17, 0x14, 0x0b, 0x12, 0x1f, 0xea,
    0xec, 0xf3, 0x25, 0x40, 0x06, 0x15, 0xfc, 0xff, 0xe3, 0x0f, 0x03, 0x30, 0x02,
    0x06, 0xe2, 0x00, 0xf2, 0x26, 0xe6, 0xef, 0xe6, 0xf2, 0x0a, 0xf3, 0xc4, 0x02,
    0xea, 0xfe, 0x0a, 0x05, 0x0a, 0xe2, 0x06, 0xf6, 0x07, 0x6a, 0x02, 0x0f, 0x35,
    0xe9, 0xf1, 0xfb, 0x03, 0x2e, 0x18, 0x13, 0xcf, 0xfd, 0xe4, 0x13, 0xd7, 0x05,
    0x02, 0xf3, 0x35, 0xe5, 0x11, 0xb6, 0x15, 0x02, 0x0a, 0x0c, 0xec, 0xcb, 0xfc,
    0x01, 0x15, 0x52, 0x0b, 0x11, 0x27, 0x1d, 0xbd, 0xf9, 0x12, 0x4c, 0x2c, 0x1d,
    0xdd, 0x1c, 0xec, 0x28, 0xff, 0x1e, 0x33, 0xf5, 0x25, 0xe9, 0x18, 0xd9, 0x07,
    0x19, 0xf6, 0x04, 0xd5, 0xdc, 0x14, 0xe4, 0x50, 0x38, 0x14, 0x0b, 0x1a, 0x1b,
    0xd0, 0x00, 0x0c, 0x3a, 0xf2, 0x0d, 0xbd, 0x01, 0xff, 0x0a, 0xf2, 0x04, 0xff,
    0x12, 0x15, 0xf8, 0x0c, 0xf7, 0xd8, 0x1d, 0x12, 0xe4, 0xec, 0x03, 0x0d, 0xf3,
    0x11, 0x4d, 0xe1, 0xf2, 0xfe, 0x1b, 0x05, 0x15, 0x0a, 0x25, 0xee, 0x16, 0xba,
    0x05, 0x10, 0x12, 0xf2, 0xe4, 0xea, 0x27, 0x1b, 0xfb, 0x03, 0xfc, 0x07, 0x18,
    0x1b, 0x12, 0x1a, 0xf8, 0x0e, 0x11, 0xf6, 0x2d, 0xda, 0x19, 0xbc, 0x0c, 0x07,
    0x1b, 0x02, 0xf9, 0xd1, 0xe8, 0x02, 0x07, 0x1f, 0x01, 0x0c, 0xef, 0x3d, 0x12,
    0x02, 0xf3, 0xfb, 0x10, 0x09, 0xf7, 0x15, 0xfd, 0xf3, 0x12, 0x13, 0xf3, 0x17,
    0x0c, 0xd6, 0xfe, 0xe2, 0x04, 0x31, 0x0d, 0x08, 0x20, 0x0c, 0xfc, 0xd6, 0x0b,
    0x03, 0xfa, 0x07, 0xfa, 0x24, 0xf3, 0xe9, 0xf6, 0xeb, 0x07, 0xf2, 0x06, 0x04,
    0x07, 0x07, 0xfe, 0x0b, 0xf8, 0xfd, 0xf1, 0x10, 0xee, 0x0d, 0xf2, 0xed, 0x18,
    0x01, 0x37, 0x26, 0xfb, 0xf3, 0xff, 0x03, 0xe0, 0xd6, 0x0a, 0x2f, 0x05, 0xf3,
    0xf1, 0xc6, 0xf6, 0x18, 0xf5, 0xf5, 0x0c, 0x12, 0xf8, 0x13, 0x00, 0x1c, 0x27,
    0xf4, 0xf2, 0x1e, 0xf6, 0xed, 0x04, 0xfc, 0x2b, 0x0c, 0x09, 0xee, 0xfb, 0xf7,
    0xf8, 0xde, 0xf2, 0x38, 0xf8, 0x0b, 0x03, 0xf1, 0xf4, 0xfa, 0x02, 0x0c, 0x2d,
    0x0b, 0xf5, 0x22, 0xfd, 0x3b, 0x1f, 0xe9, 0xfe, 0x4b, 0xfd, 0xd4, 0x0f, 0xf9,
    0x44, 0x03, 0x3b, 0xd7, 0x00, 0xdf, 0x28, 0xf3, 0x20, 0x0a, 0x19, 0x17, 0xe6,
    0xde, 0xd5, 0xd4, 0x0d, 0x0c, 0x21, 0xff, 0xf3, 0x26, 0xf2, 0x60, 0x30, 0x00,
    0x02, 0x54, 0xf2, 0xb2, 0xf8, 0x0c, 0x39, 0x0c, 0x1e, 0xc6, 0x13, 0xec, 0x09,
    0xdc, 0x27, 0x11, 0x11, 0x0a, 0xdd, 0xe8, 0xf4, 0x0d, 0xfb, 0x05, 0x0b, 0xda,
    0xd0, 0x03, 0x06, 0x37, 0x3a, 0xf9, 0x0b, 0x3a, 0x2b, 0xc8, 0x0f, 0x17, 0x2f,
    0xf6, 0xff, 0x8c, 0xf8, 0xea, 0xe9, 0xd4, 0x17, 0x0d, 0x0d, 0x12, 0xf7, 0xf8,
    0x07, 0x06, 0x0f, 0xff, 0xfb, 0x00, 0xf5, 0x0d, 0xec, 0x22, 0x32, 0x01, 0x01,
    0xfa, 0x28, 0xeb, 0x1d, 0xfc, 0x11, 0xdc, 0x08, 0xc2, 0xf7, 0xf0, 0xfc, 0xf2,
    0xde, 0xe3, 0xf9, 0x07, 0xf8, 0x04, 0x0f, 0x1e, 0xda, 0x29, 0xf1, 0x0a, 0x07,
    0x10, 0x0a, 0x20, 0x21, 0xea, 0x12, 0xf4, 0xf9, 0x0d, 0x10, 0xf3, 0xfe, 0xf2,
    0x09, 0xf2, 0xe8, 0x12, 0xfc, 0x15, 0x02, 0x58, 0xe7, 0xd0, 0xe7, 0xfd, 0x03,
    0xee, 0xf0, 0x03, 0xf5, 0xf9, 0xff, 0x11, 0xf3, 0x1b, 0x13, 0xd3, 0x07, 0xe5,
    0x1e, 0x04, 0x1a, 0xfb, 0x15, 0x19, 0xe9, 0x08, 0xe6, 0x0e, 0x0c, 0xec, 0xf2,
    0x24, 0x02, 0xec, 0x09, 0x08, 0x12, 0x36, 0x02, 0x23, 0xfa, 0x0a, 0xf9, 0xf6,
    0x16, 0xd6, 0x0a, 0xf5, 0x0b, 0xfe, 0xfc, 0xec, 0x22, 0x00, 0x1f, 0x33, 0xea,
    0xec, 0x01, 0x0f, 0xfe, 0xe2, 0x03, 0xfb, 0x15, 0xf6, 0xfa, 0xea, 0xee, 0x2e,
    0xed, 0x24, 0x00, 0xe6, 0xf3, 0x0c, 0x02, 0x24, 0x2c, 0xf3, 0x02, 0x06, 0xef,
    0xe0, 0x25, 0xfe, 0x0b, 0x05, 0xe6, 0xc6, 0xf9, 0xf7, 0xec, 0xf2, 0xf1, 0x1c,
    0xff, 0x27, 0xfc, 0x08, 0xec, 0x1c, 0xf9, 0xff, 0x1b, 0x10, 0xe2, 0xe9, 0x14,
    0x46, 0x3e, 0x0b, 0x10, 0x2d, 0x1a, 0xdb, 0x16, 0x0d, 0x1b, 0x14, 0xfc, 0xe3,
    0x19, 0xfd, 0x17, 0xe6, 0xf7, 0x39, 0x15, 0x29, 0x00, 0x06, 0x0b, 0x12, 0x13,
    0x06, 0x10, 0xeb, 0xe4, 0x30, 0xf9, 0x56, 0x35, 0xfb, 0x1c, 0x1f, 0x2e, 0xce,
    0x0f, 0x04, 0x2d, 0x09, 0xf7, 0xbb, 0xfd, 0xfb, 0xfa, 0xee, 0xf3, 0x31, 0x23,
    0x06, 0x0d, 0x29, 0x0b, 0x1b, 0xfe, 0x02, 0x0f, 0xfa, 0xe1, 0xfc, 0x08, 0x68,
    0x23, 0xee, 0x12, 0xe2, 0xfc, 0xec, 0xf6, 0x12, 0xfb, 0xf5, 0xf2, 0xa0, 0xf9,
    0xe3, 0x14, 0xd4, 0xdc, 0x0c, 0xfb, 0x03, 0xf1, 0xdd, 0x13, 0x1a, 0xf5, 0xe2,
    0xf4, 0x08, 0xee, 0xeb, 0xf6, 0x44, 0x2f, 0xe4, 0xfb, 0xe9, 0x11, 0x09, 0xf7,
    0xf5, 0x17, 0xef, 0x00, 0xb7, 0xf6, 0xe8, 0xfb, 0xde, 0x0a, 0xfe, 0x03, 0xfe,
    0xf7, 0x03, 0xf8, 0xed, 0xe2, 0xf5, 0xff, 0xfc, 0xf8, 0xf3, 0xf9, 0x25, 0x0d,
    0x00, 0xe5, 0xf0, 0xf3, 0x11, 0xf8, 0xfd, 0x0c, 0x05, 0xf0, 0xea, 0xe9, 0x04,
    0x1a, 0x0f, 0xe8, 0x69, 0x01, 0xe0, 0xfd, 0x00, 0xf5, 0x10, 0x0b, 0x08, 0x08,
    0x05, 0xf8, 0x17, 0x01, 0x02, 0xda, 0xe2, 0x01, 0xd0, 0xf1, 0x23, 0x0a, 0xe7,
    0xfa, 0xf3, 0xc8, 0xee, 0xf9, 0xf7, 0x03, 0xdd, 0xf5, 0x19, 0x0e, 0x01, 0x0d,
    0x0a, 0xf5, 0x1a, 0xf4, 0x15, 0xed, 0x0d, 0x19, 0xf3, 0xe4, 0xfd, 0x24, 0xe0,
    0xfe, 0xef, 0xf9, 0x05, 0xf7, 0xf7, 0x0f, 0x26, 0xe4, 0x01, 0xf6, 0xfc, 0xd8,
    0xf4, 0xec, 0xfb, 0x0e, 0x0e, 0xf2, 0xf1, 0x00, 0x1b, 0xf7, 0xef, 0x1c, 0x11,
    0xfa, 0x03, 0xee, 0x2d, 0x21, 0xea, 0xfa, 0x12, 0xf3, 0x07, 0x18, 0xe2, 0xfb,
    0x03, 0xef, 0x17, 0x08, 0xfe, 0xe6, 0xe5, 0xfe, 0x1f, 0xfe, 0x26, 0x14, 0x22,
    0xed, 0x0a, 0x04, 0x19, 0x2b, 0xf2, 0xe4, 0x0b, 0xf4, 0x37, 0x36, 0xe7, 0x15,
    0x07, 0x08, 0xef, 0x22, 0xed, 0x18, 0xe3, 0xec, 0xfd, 0x04, 0x22, 0x05, 0xd7,
    0xe0, 0x06, 0x0c, 0xe9, 0x02, 0xf0, 0x07, 0x0f, 0xe2, 0x0a, 0x0a, 0x0f, 0x0f,
    0x24, 0x0f, 0x52, 0x1c, 0x07, 0xf4, 0x17, 0xf6, 0xf5, 0x0a, 0xfe, 0xff, 0x00,
    0xe1, 0xb5, 0xf8, 0xfb, 0x18, 0xca, 0xef, 0xef, 0x0e, 0x1c, 0x04, 0x20, 0xff,
    0x10, 0xed, 0x15, 0xff, 0x0a, 0xfb, 0x09, 0x03, 0x47, 0x0d, 0xcf, 0xe9, 0x13,
    0x23, 0xef, 0xfa, 0x02, 0x10, 0xd1, 0xdf, 0xdc, 0xf3, 0x01, 0xfb, 0x1c, 0xfc,
    0x3a, 0xe3, 0x07, 0xfe, 0x08, 0x0d, 0x13, 0xe5, 0x05, 0x0c, 0x14, 0xf3, 0xf1,
    0xfd, 0x1b, 0x24, 0xd6, 0x01, 0x1f, 0x09, 0xc5, 0x13, 0x10, 0x07, 0x09, 0x0e,
    0xc6, 0xfe, 0xe6, 0xf7, 0xfb, 0x0b, 0xf1, 0xf5, 0xf3, 0xe0, 0xfb, 0xff, 0x02,
    0xec, 0x04, 0x15, 0xdd, 0xfe, 0x0e, 0xf3, 0x19, 0x13, 0xe5, 0x07, 0xdb, 0x1b,
    0xfb, 0x0e, 0x03, 0xee, 0xe6, 0xfd, 0xec, 0xf7, 0x09, 0x1d, 0xf7, 0xfe, 0x0d,
    0xec, 0xf5, 0xfd, 0x0a, 0x18, 0x07, 0xef, 0x00, 0x0d, 0xff, 0x0a, 0xf5, 0x0b,
    0xfd, 0xff, 0xd6, 0x07, 0xeb, 0xd3, 0xf5, 0xf2, 0xe8, 0x31, 0x16, 0xe2, 0xf9,
    0xf4, 0xf4, 0xe2, 0x10, 0xf1, 0x3f, 0x01, 0x03, 0xef, 0xf2, 0x03, 0x03, 0xf2,
    0x06, 0xf2, 0x0e, 0xed, 0x01, 0xf5, 0x0e, 0x05, 0xdb, 0x00, 0x0b, 0x07, 0xff,
    0x07, 0xf3, 0x3e, 0x04, 0xe9, 0xf4, 0xd5, 0x00, 0x0c, 0x21, 0x0a, 0xf4, 0xef,
    0x14, 0xec, 0xf2, 0x02, 0x18, 0x15, 0x03, 0x11, 0xee, 0xef, 0x1d, 0xe5, 0xdc,
    0xfc, 0x0a, 0x1a, 0x0d, 0x0a, 0x04, 0x11, 0xee, 0x0e, 0x13, 0xed, 0x2d, 0xf1,
    0x18, 0xcf, 0x05, 0xf6, 0xfd, 0xf5, 0x18, 0xf5, 0xf3, 0xfb, 0x15, 0xfe, 0xf8,
    0x22, 0xfc, 0x07, 0x25, 0xfd, 0xfc, 0x11, 0xdd, 0x0a, 0x0b, 0x09, 0xfc, 0x09,
    0xef, 0xda, 0xf1, 0xdd, 0x15, 0xee, 0xff, 0x1f, 0x1b, 0xeb, 0x0a, 0x01, 0x0a,
    0x09, 0xf6, 0x11, 0x0b, 0xe7, 0x11, 0x04, 0x13, 0x01, 0x1d, 0x0b, 0x04, 0xf4,
    0xec, 0x19, 0x1a, 0xec, 0xf6, 0x0c, 0xf2, 0x06, 0xfc, 0xf6, 0x06, 0xe4, 0x03,
    0xf2, 0x02, 0xfd, 0x0d, 0x08, 0x13, 0xf6, 0xfd, 0x03, 0x1d, 0xe6, 0x08, 0xfc,
    0x08, 0x0a, 0xf6, 0xfd, 0x0c, 0xfc, 0xd0, 0x0d, 0xed, 0x18, 0x17, 0xea, 0xf9,
    0xeb, 0xf3, 0xe9, 0xfe, 0xe6, 0xf7, 0x1c, 0x0c, 0xfe, 0xe9, 0x12, 0xfd, 0xfc,
    0xfb, 0xee, 0x14, 0x1e, 0x0a, 0xfa, 0xfc, 0x03, 0xee, 0xeb, 0x0b, 0x0a, 0xdf,
    0xfe, 0x05, 0xf6, 0xf6, 0x22, 0xf2, 0x0f, 0xf5, 0xe8, 0x01, 0xed, 0xe7, 0x16,
    0xfd, 0xfe, 0xdb, 0x16, 0xf6, 0xe8, 0xea, 0x01, 0x28, 0x12, 0x1c, 0x2a, 0x0f,
    0x02, 0x1a, 0xee, 0xfb, 0x1e, 0x00, 0x0a, 0x06, 0x09, 0x20, 0xf0, 0xed, 0x02,
    0xc7, 0x03, 0x11, 0xf9, 0xff, 0x06, 0xdf, 0x01, 0x35, 0xf6, 0xcc, 0xfd, 0x11,
    0xf6, 0x06, 0xf5, 0xf0, 0x07, 0x0d, 0x0c, 0xfe, 0x0d, 0xd5, 0xf5, 0xf6, 0x0b,
    0x21, 0xfb, 0xf3, 0xe2, 0x00, 0xf9, 0xf5, 0xfd, 0x03, 0x03, 0x1c, 0x05, 0x10,
    0x0d, 0xfb, 0xef, 0xf3, 0xda, 0x04, 0xe8, 0xfc, 0xf7, 0x0b, 0xdd, 0xfa, 0x24,
    0xfe, 0xf2, 0x57, 0x04, 0xf1, 0xf3, 0x2a, 0xf9, 0xf9, 0x02, 0xf7, 0x03, 0xf8,
    0xfc, 0xe7, 0xf0, 0x0c, 0xef, 0xf9, 0xf2, 0xff, 0x05, 0xf5, 0xea, 0xf2, 0xfb,
    0x0d, 0xff, 0xfc, 0xf5, 0xed, 0xec, 0xf5, 0xe8, 0x1d, 0x02, 0xf1, 0xe9, 0x26,
    0x0c, 0xe4, 0xed, 0x09, 0x12, 0xf0, 0x09, 0xe5, 0xec, 0xda, 0x07, 0xf8, 0xfb,
    0xe5, 0x0c, 0xec, 0xfb, 0xf8, 0xf7, 0xdf, 0x04, 0xf6, 0x02, 0xd3, 0x1a, 0x05,
    0xf9, 0x0c, 0xc1, 0x05, 0x02, 0xfb, 0xd3, 0xfb, 0xf0, 0x05, 0xec, 0x0c, 0x15,
    0xdb, 0xf7, 0xe8, 0xe3, 0xed, 0xf8, 0x07, 0x1d, 0x07, 0xd5, 0x09, 0xd2, 0xfa,
    0x0a, 0xf6, 0xfc, 0xf3, 0x0a, 0x08, 0xf0, 0x15, 0x2e, 0x0d, 0xd9, 0xfd, 0xf4,
    0xee, 0x01, 0x0b, 0x11, 0xf3, 0xf9, 0xf2, 0x0c, 0x09, 0x16, 0xf6, 0xf9, 0x13,
    0x0e, 0x29, 0xec, 0x03, 0xf8, 0x04, 0x09, 0x0b, 0x08, 0x1f, 0x0a, 0xfd, 0x1a,
    0x01, 0x2e, 0x08, 0xf0, 0x18, 0xed, 0xde, 0xfe, 0xf6, 0xf0, 0xf2, 0x0a, 0xe5,
    0x14, 0xf0, 0x18, 0xe8, 0xf8, 0xfa, 0x11, 0xf2, 0xfc, 0xc8, 0xe8, 0xfa, 0xf6,
    0xef, 0x0d, 0x0b, 0x16, 0xff, 0x15, 0x24, 0x14, 0xf0, 0x00, 0x20, 0xd8, 0xf8,
    0xf8, 0xea, 0xdf, 0xee, 0xf9, 0xda, 0x04, 0x0a, 0x10, 0xff, 0xf8, 0xc9, 0x0d,
    0x08, 0xfd, 0xed, 0xe2, 0xd7, 0x02, 0xea, 0xff, 0xeb, 0x00, 0xe9, 0xf2, 0x1d,
    0xfb, 0x03, 0xf8, 0x1f, 0xe9, 0x0d, 0xf5, 0xea, 0xfe, 0xf8, 0x1f, 0xf8, 0x05,
    0x0d, 0x07, 0x36, 0x20, 0xfe, 0x0a, 0x09, 0xd9, 0x0e, 0xe2, 0x16, 0x16, 0xe4,
    0x0e, 0xd1, 0x05, 0xf1, 0x14, 0x1c, 0xcb, 0x23, 0x18, 0x11, 0xe0, 0xf4, 0xe8,
    0xea, 0xf2, 0xfe, 0xfc, 0xfe, 0xe1, 0x12, 0xe4, 0x12, 0xf0, 0x0e, 0x0b, 0xef,
    0xd7, 0x03, 0xed, 0xf0, 0xed, 0xee, 0xdc, 0xca, 0x1b, 0xf6, 0xf2, 0x0a, 0xe4,
    0xef, 0xfa, 0xfe, 0x16, 0xf4, 0xfd, 0xeb, 0xd8, 0xf1, 0xf7, 0xc2, 0xf3, 0xe5,
    0xf4, 0xea, 0xfe, 0x0a, 0x12, 0x22, 0x06, 0x20, 0xf8, 0xf6, 0x14, 0x03, 0x0b,
    0xff, 0xf2, 0xdd, 0xef, 0xe9, 0xd5, 0xf7, 0x11, 0x19, 0x18, 0xf2, 0x04, 0x0f,
    0x02, 0x08, 0x0e, 0xfe, 0x05, 0xd7, 0x09, 0xe1, 0x04, 0xd0, 0x05, 0xee, 0x0b,
    0x11, 0x10, 0xed, 0x14, 0xdf, 0x05, 0xf5, 0xe7, 0x0d, 0x13, 0x09, 0xf2, 0x00,
    0xed, 0x05, 0xfa, 0xc1, 0xff, 0x14, 0x04, 0xfa, 0x0b, 0xfa, 0x0e, 0xb7, 0xd5,
    0xa6, 0xf5, 0xa7, 0xf7, 0x01, 0xf8, 0xfc, 0xfd, 0xeb, 0xe5, 0xe0, 0x02, 0x00,
    0x0e, 0xf6, 0xe3, 0x16, 0xf2, 0x1a, 0xe3, 0xe8, 0x09, 0xd1, 0xfe, 0x13, 0xee,
    0xd2, 0x0c, 0xf6, 0x18, 0xc0, 0xe6, 0xc7, 0xee, 0xa1, 0x16, 0xff, 0x20, 0xf0,
    0x16, 0xe2, 0xe8, 0xf6, 0x12, 0x18, 0xff, 0xf0, 0x0a, 0xfc, 0xf0, 0x06, 0xec,
    0x00, 0x1d, 0xe4, 0xe9, 0x17, 0x0b, 0xeb, 0x03, 0xd7, 0x14, 0xcc, 0xed, 0xc3,
    0xd6, 0xd8, 0x17, 0xe9, 0xfa, 0xe6, 0xff, 0xc7, 0xee, 0xdd, 0x03, 0x2f, 0x00,
    0x0b, 0x00, 0x01, 0x2a, 0xf7, 0xfb, 0x03, 0x15, 0xe9, 0x0c, 0x02, 0x07, 0x07,
    0x1d, 0xcf, 0xef, 0xd4, 0x0d, 0xe0, 0xf2, 0xc2, 0xf7, 0x16, 0x0c, 0xea, 0xf6,
    0xe5, 0x05, 0xed, 0x10, 0x0c, 0xf7, 0x00, 0xfd, 0xdd, 0xfb, 0xfb, 0x16, 0x22,
    0xd2, 0x0e, 0x06, 0x02, 0x09, 0x13, 0x19, 0x17, 0xf2, 0x04, 0xf8, 0x2d, 0x07,
    0xdb, 0xeb, 0x35, 0x08, 0xf7, 0xf1, 0xf9, 0x23, 0x0d, 0xf7, 0xe3, 0x11, 0x06,
    0x0f, 0xfb, 0x06, 0x1d, 0x23, 0x08, 0xf5, 0x02, 0xd8, 0xf1, 0x07, 0x14, 0x07,
    0x21, 0x06, 0x01, 0x0b, 0x19, 0x03, 0x13, 0xf0, 0xf6, 0xd7, 0xf1, 0xef, 0xf9,
    0xe9, 0xf4, 0xdb, 0xd8, 0xea, 0x01, 0x04, 0x18, 0xef, 0x0b, 0x05, 0x0f, 0xf9,
    0xf9, 0xfa, 0xfe, 0xce, 0x05, 0xf8, 0xdf, 0xfd, 0xea, 0xf4, 0xfd, 0xee, 0xd9,
    0xff, 0x00, 0xe9, 0x02, 0xf5, 0x00, 0xfb, 0xea, 0x06, 0xf4, 0xec, 0xf6, 0x03,
    0x03, 0xca, 0x10, 0x01, 0x13, 0xff, 0xe7, 0x0a, 0xfd, 0xe4, 0x16, 0x1a, 0x19,
    0x17, 0xd4, 0xd7, 0xe7, 0xf7, 0xf2, 0x02, 0x09, 0xf3, 0x06, 0x23, 0xeb, 0x0d,
    0xe9, 0xf0, 0xfd, 0xf5, 0xfb, 0xee, 0x1d, 0xe9, 0x0f, 0xf6, 0x03, 0x2b, 0xf7,
    0x10, 0x21, 0xf6, 0xdd, 0xfb, 0xf0, 0x1f, 0xc6, 0xd5, 0xb8, 0xeb, 0x09, 0x12,
    0xfb, 0x16, 0xf2, 0x40, 0x1f, 0xf7, 0x13, 0x04, 0x21, 0x24, 0x0e, 0x01, 0x05,
    0xeb, 0x1d, 0xf0, 0xfc, 0x06, 0xd8, 0x0b, 0x08, 0xcf, 0x04, 0x2c, 0xfb, 0x1e,
    0xaf, 0xdb, 0xb7, 0xe1, 0xed, 0xf2, 0xfc, 0x18, 0x09, 0x2d, 0xf0, 0xe3, 0xd0,
    0xed, 0x11, 0x2b, 0x15, 0xf2, 0xe2, 0xbd, 0x18, 0xbb, 0xeb, 0xee, 0xb7, 0xfc,
    0x14, 0xdf, 0x08, 0x0f, 0x20, 0x02, 0xdc, 0xda, 0xcc, 0xe9, 0xe9, 0xf9, 0xf2,
    0x1b, 0xef, 0x1c, 0xe4, 0x0b, 0xf6, 0x0d, 0x21, 0xe5, 0x17, 0xfc, 0x0a, 0xec,
    0x07, 0xde, 0xf2, 0x0f, 0xdc, 0xeb, 0x07, 0xe2, 0xdf, 0x17, 0xf6, 0x12, 0xd2,
    0x05, 0xc6, 0xdf, 0xf1, 0xf7, 0x0e, 0x0c, 0xf3, 0x13, 0xde, 0xff, 0xc6, 0xfa,
    0x00, 0x15, 0xfc, 0x00, 0x08, 0xfb, 0x02, 0xef, 0x0c, 0xde, 0x01, 0x00, 0xf0,
    0xf5, 0xef, 0x25, 0x02, 0xfe, 0xf1, 0xf9, 0xf9, 0x0a, 0xdd, 0x11, 0x28, 0xf1,
    0x07, 0x03, 0xdd, 0x0c, 0xe4, 0xf2, 0xfa, 0xf9, 0xfa, 0x06, 0x07, 0xf4, 0x02,
    0x0c, 0x21, 0xe8, 0xe8, 0xe7, 0xe9, 0xeb, 0xfb, 0xf7, 0x0e, 0xe2, 0x0b, 0x0f,
    0x29, 0x00, 0xf5, 0xdb, 0xf9, 0xd9, 0xdc, 0xe1, 0x03, 0xdc, 0x10, 0xeb, 0xd1,
    0xf8, 0xf1, 0xdd, 0x18, 0xf7, 0xf6, 0xe3, 0x04, 0x13, 0xe1, 0xfa, 0x13, 0xe9,
    0xf7, 0x02, 0xdb, 0x13, 0xd8, 0xf3, 0x06, 0xf6, 0xee, 0xe1, 0xf0, 0xe3, 0xeb,
    0x04, 0xd9, 0xe8, 0xf1, 0xea, 0x02, 0xf4, 0x15, 0xf3, 0xc2, 0xd4, 0x17, 0xe2,
    0x23, 0x01, 0xeb, 0x00, 0x05, 0xd7, 0xf5, 0x31, 0x0c, 0x05, 0xdc, 0xf4, 0xdf,
    0xfd, 0xdd, 0x0a, 0x17, 0x06, 0xed, 0x19, 0x06, 0xfa, 0x01, 0xf0, 0xec, 0xff,
    0x11, 0x13, 0x0a, 0xdc, 0x0a, 0xdc, 0xe9, 0x2f, 0xec, 0x07, 0x24, 0xbd, 0xed,
    0x08, 0x12, 0x05, 0xc3, 0x10, 0xe2, 0xe3, 0xfa, 0x2a, 0xd7, 0x06, 0x03, 0x52,
    0x24, 0xef, 0x07, 0xfe, 0x19, 0x36, 0x03, 0x1a, 0x02, 0x02, 0x00, 0xde, 0xe7,
    0x24, 0xf1, 0x03, 0x18, 0xd2, 0xff, 0x2b, 0x1e, 0x10, 0xc2, 0xe5, 0xaa, 0xe2,
    0xe8, 0x0b, 0xf4, 0x23, 0xef, 0x40, 0x19, 0x02, 0xec, 0x10, 0x21, 0x16, 0x31,
    0x0a, 0x1a, 0xea, 0x18, 0xf0, 0xf0, 0x00, 0xe6, 0x07, 0x0d, 0xc9, 0x05, 0x22,
    0x30, 0x02, 0xb2, 0x06, 0xd9, 0x0c, 0xdc, 0xf7, 0xf3, 0x13, 0xe8, 0x26, 0xfe,
    0x0a, 0xc6, 0x0b, 0x31, 0xf1, 0x1d, 0x02, 0x0f, 0xe0, 0x13, 0xe3, 0xf4, 0xed,
    0xf3, 0xe9, 0x10, 0xc0, 0xe9, 0x0a, 0x01, 0xfc, 0xc7, 0x05, 0xe0, 0xf5, 0xca,
    0xea, 0xc9, 0x17, 0xe4, 0x1c, 0xbf, 0xee, 0xe7, 0x14, 0x2c, 0xf7, 0x1a, 0xf6,
    0x0a, 0xdf, 0x07, 0x04, 0x0d, 0xf2, 0x04, 0xe9, 0xff, 0xfa, 0x12, 0x1a, 0xfb,
    0x06, 0xf6, 0xf6, 0x10, 0xf6, 0xd6, 0xe6, 0xe3, 0xff, 0xeb, 0xff, 0xe5, 0xed,
    0xd8, 0xf6, 0xf5, 0x09, 0x0a, 0xed, 0x0d, 0xf3, 0x15, 0xe8, 0x21, 0x01, 0xea,
    0xf4, 0x13, 0xc5, 0xdb, 0x14, 0x0d, 0x12, 0x0e, 0xf0, 0xfa, 0xf6, 0xd9, 0xf2,
    0x00, 0xf1, 0xe9, 0xea, 0x0c, 0xdf, 0xde, 0xee, 0xe7, 0x20, 0xfa, 0xe3, 0x14,
    0x01, 0xff, 0xde, 0xf6, 0x1b, 0xdc, 0x11, 0x08, 0xde, 0xd0, 0x02, 0xf4, 0x1e,
    0xb4, 0xfb, 0xe7, 0xeb, 0x85, 0x1c, 0x10, 0x18, 0xea, 0x06, 0xee, 0xd2, 0xf4,
    0x11, 0xfe, 0x15, 0xfe, 0x0e, 0x1e, 0x1b, 0x17, 0xe0, 0x11, 0x09, 0xd2, 0x13,
    0x21, 0xed, 0x01, 0x1e, 0x15, 0x19, 0xd8, 0x02, 0xe7, 0x0e, 0xd6, 0x27, 0xfb,
    0x0b, 0xea, 0x20, 0x07, 0xeb, 0xf4, 0xe9, 0x05, 0x32, 0x09, 0x0a, 0xfa, 0x09,
    0x02, 0xe5, 0xcc, 0x1e, 0xea, 0x0e, 0x0a, 0xcc, 0xf4, 0xfc, 0x23, 0x02, 0xf5,
    0xf4, 0xd0, 0xf4, 0x35, 0x20, 0x0c, 0x14, 0x08, 0x38, 0x2a, 0xfd, 0x08, 0x0d,
    0x1f, 0x18, 0xf6, 0xff, 0xf3, 0x22, 0x0e, 0x08, 0xee, 0x1a, 0xf6, 0x02, 0x24,
    0xc4, 0x04, 0x0b, 0x31, 0x0e, 0xa2, 0xe6, 0xb5, 0x04, 0xed, 0x0c, 0xfa, 0x2e,
    0xfd, 0x31, 0xf9, 0xfc, 0xe4, 0x1c, 0x4b, 0xf6, 0xfe, 0x11, 0x0e, 0xea, 0x1c,
    0xf6, 0xcd, 0x16, 0xde, 0x15, 0x24, 0xdc, 0x1f, 0x07, 0x41, 0x12, 0xd9, 0x07,
    0xb0, 0xfa, 0x07, 0x09, 0xd9, 0x2c, 0xf4, 0x12, 0xfd, 0x01, 0xf6, 0x07, 0x2a,
    0x05, 0x06, 0x1e, 0x0a, 0xef, 0x1d, 0x15, 0x02, 0x13, 0xe6, 0x16, 0x06, 0xec,
    0x05, 0x0d, 0x1b, 0x0f, 0xe3, 0xf6, 0xdb, 0x04, 0xfd, 0x17, 0xed, 0x30, 0xdf,
    0x12, 0xfb, 0xf6, 0xf2, 0x1b, 0x14, 0xf6, 0x11, 0x07, 0x09, 0xce, 0x03, 0xff,
    0xfc, 0x0e, 0xf7, 0xec, 0xee, 0xcd, 0x0e, 0x18, 0x10, 0xfc, 0xec, 0xe5, 0xe0,
    0xf3, 0x9c, 0x00, 0xc2, 0x03, 0xd7, 0xf6, 0xd9, 0xd3, 0xd4, 0xef, 0x08, 0x0f,
    0xeb, 0x11, 0x1b, 0xea, 0x06, 0xe9, 0x16, 0xf5, 0xe2, 0xf9, 0xf5, 0xf5, 0x20,
    0x26, 0x1d, 0xf3, 0xfa, 0x05, 0x0e, 0xfc, 0x1f, 0xf1, 0xf1, 0xf7, 0xeb, 0xed,
    0xce, 0xea, 0xfb, 0xf8, 0xf2, 0x0b, 0x03, 0x03, 0x2c, 0xee, 0x17, 0xf1, 0xf3,
    0x06, 0xea, 0xf4, 0x02, 0xe9, 0xfd, 0x01, 0x06, 0x00, 0xab, 0xdb, 0xf4, 0xe6,
    0x0b, 0x06, 0x1b, 0xfd, 0xfd, 0xfc, 0xfd, 0x02, 0xf1, 0x12, 0xf8, 0xf2, 0x00,
    0xf6, 0x12, 0x25, 0x10, 0xf6, 0xf9, 0x0a, 0x00, 0x10, 0x11, 0xff, 0x23, 0x13,
    0x22, 0x11, 0xd7, 0x22, 0x05, 0x0b, 0xf0, 0xf5, 0xf0, 0x12, 0x01, 0x0d, 0x1a,
    0xf5, 0xfd, 0xf6, 0xfe, 0x0f, 0x0f, 0x08, 0xe3, 0xfd, 0x15, 0xee, 0xf7, 0x14,
    0xff, 0xfa, 0x0e, 0xcf, 0x16, 0x04, 0x25, 0xf9, 0xf3, 0xe7, 0xe8, 0xfd, 0x3a,
    0x28, 0xe7, 0x0e, 0x28, 0x2c, 0x15, 0x09, 0x02, 0x05, 0x0b, 0x07, 0xf5, 0x12,
    0xf9, 0xfe, 0x10, 0xe6, 0xd7, 0x08, 0xf7, 0xf5, 0x09, 0xa0, 0x12, 0xfe, 0x2c,
    0x01, 0xdd, 0xcb, 0xd5, 0x14, 0x53, 0x0b, 0x02, 0x26, 0xe8, 0x1d, 0x00, 0x00,
    0xd4, 0x0c, 0x21, 0xfc, 0xfb, 0xf0, 0x0c, 0x06, 0x2d, 0xfe, 0xd6, 0x1a, 0xc8,
    0xf0, 0x15, 0xd0, 0xfd, 0xf8, 0x2f, 0x0c, 0xd6, 0xf2, 0xd9, 0xfc, 0x1d, 0xef,
    0xf2, 0x20, 0xdf, 0x0e, 0xf2, 0x0b, 0xe4, 0x1f, 0x16, 0xf0, 0x0c, 0xf5, 0xf4,
    0xe1, 0x16, 0xf4, 0xec, 0x0d, 0xb8, 0xe7, 0x04, 0xd6, 0x0d, 0xfa, 0x24, 0x04,
    0xcf, 0x01, 0xd4, 0x0d, 0xff, 0xf9, 0xca, 0x10, 0xdf, 0x1d, 0x01, 0xe8, 0xc8,
    0xff, 0x0c, 0x16, 0xf3, 0x0c, 0xf0, 0xda, 0x0b, 0xf1, 0xd2, 0x02, 0xea, 0xf9,
    0xeb, 0xac, 0xf2, 0x11, 0x00, 0x01, 0xca, 0xeb, 0xe9, 0xe4, 0xad, 0xfb, 0xbd,
    0x06, 0xbd, 0x04, 0xb3, 0x02, 0xb2, 0x03, 0xf7, 0x0b, 0xde, 0x04, 0x02, 0xdf,
    0x08, 0xed, 0x13, 0x06, 0xfa, 0xf5, 0xf3, 0xf1, 0xfe, 0x0d, 0x25, 0x02, 0xfc,
    0x12, 0x2e, 0xfc, 0x0e, 0x09, 0xee, 0x04, 0xcd, 0xfc, 0x09, 0xe8, 0xd8, 0xf0,
    0xfd, 0x0f, 0xdc, 0x0b, 0x2c, 0xef, 0xf4, 0xf4, 0xf7, 0x09, 0xeb, 0x0a, 0xe7,
    0xf4, 0xf1, 0x13, 0xf7, 0xfc, 0xee, 0xfa, 0x11, 0xe4, 0xda, 0x0c, 0xf2, 0x13,
    0xfd, 0x08, 0xfe, 0xd6, 0x00, 0xfe, 0xf7, 0x0e, 0x03, 0xfb, 0x27, 0x06, 0x03,
    0xcd, 0xe1, 0x1e, 0xda, 0xfb, 0xf7, 0xfa, 0x09, 0x08, 0x03, 0x0f, 0xee, 0x12,
    0xeb, 0xf6, 0xfa, 0x11, 0x00, 0x0c, 0xff, 0xff, 0x14, 0xe5, 0x0a, 0xff, 0x06,
    0x14, 0xfb, 0x1b, 0xe7, 0xfe, 0x16, 0xd3, 0xf0, 0xff, 0xf5, 0xf6, 0xfe, 0xf7,
    0xff, 0x11, 0x01, 0xfa, 0xd4, 0x0a, 0x0d, 0x15, 0x16, 0xf4, 0xec, 0x0b, 0x0c,
    0x0e, 0xea, 0x0d, 0xd5, 0xec, 0x06, 0xf4, 0x01, 0xfa, 0x17, 0x0b, 0xee, 0xdf,
    0xe2, 0xf7, 0xf1, 0x07, 0xf2, 0xf7, 0x12, 0x02, 0x30, 0x18, 0xde, 0x03, 0x00,
    0x1c, 0x0a, 0xee, 0x18, 0x09, 0x0e, 0xef, 0x09, 0x0d, 0x07, 0xf9, 0x12, 0xe9,
    0xeb, 0x00, 0xec, 0x03, 0x22, 0xfd, 0x01, 0xd4, 0xf4, 0xfc, 0x13, 0xe4, 0x05,
    0x1d, 0x03, 0x14, 0xf8, 0xec, 0xdd, 0x21, 0xb3, 0x14, 0x05, 0x09, 0x15, 0xf9,
    0xe7, 0x0e, 0x01, 0xff, 0xf3, 0x19, 0xfe, 0xf9, 0x0a, 0xfc, 0x25, 0x0b, 0xef,
    0xf8, 0x17, 0xf2, 0xf4, 0x03, 0xe8, 0xeb, 0x16, 0x00, 0xfe, 0xe9, 0x04, 0x0f,
    0x11, 0xfc, 0xfe, 0xfa, 0xfe, 0xeb, 0xed, 0xfa, 0xd8, 0x0e, 0x00, 0xf5, 0xee,
    0xf2, 0x18, 0xef, 0xf6, 0xf2, 0xd6, 0xe5, 0xe5, 0xf7, 0xe4, 0xea, 0xf6, 0xf6,
    0xfe, 0xfe, 0xe7, 0xeb, 0x09, 0xdd, 0x33, 0x06, 0xe6, 0xec, 0xd8, 0xf6, 0xc7,
    0x19, 0xed, 0x14, 0x0b, 0x00, 0xdd, 0xfb, 0x04, 0xde, 0xf8, 0x24, 0x1d, 0x21,
    0x1b, 0x05, 0x08, 0x2f, 0xf6, 0x0b, 0xfb, 0xf8, 0x1c, 0x09, 0x0b, 0xfb, 0x2d,
    0x1a, 0xda, 0x1d, 0x11, 0xef, 0x0c, 0x1a, 0xfb, 0xf8, 0xd6, 0x27, 0x02, 0x0e,
    0x18, 0xdc, 0xec, 0x25, 0x08, 0xfe, 0x25, 0x00, 0x02, 0x08, 0xf4, 0x04, 0xfa,
    0xed, 0x09, 0xfd, 0xfd, 0xeb, 0x0c, 0x1c, 0x17, 0x09, 0x11, 0xe4, 0xed, 0xf6,
    0x03, 0x19, 0x10, 0xe9, 0xef, 0xf7, 0x25, 0xf1, 0x05, 0x00, 0xf4, 0x08, 0xfd,
    0x0b, 0x0f, 0x0d, 0xeb, 0xff, 0x00, 0xf4, 0xf3, 0xfb, 0x00, 0xfb, 0x03, 0x0e,
    0xef, 0xf5, 0x19, 0xf6, 0x08, 0xf0, 0x0d, 0x03, 0x12, 0x17, 0xf3, 0x0d, 0x1f,
    0xef, 0xef, 0xfb, 0xf9, 0x1a, 0x1c, 0xe9, 0x1e, 0x22, 0x10, 0x07, 0x0f, 0x07,
    0xcf, 0x15, 0x13, 0x24, 0xf4, 0xfa, 0xea, 0x0d, 0x2e, 0xe0, 0xeb, 0x1a, 0xf2,
    0xfa, 0xec, 0x0e, 0xf0, 0x05, 0x2a, 0xf6, 0x19, 0xf7, 0x02, 0x06, 0x32, 0x00,
    0x01, 0x1d, 0x18, 0xf8, 0x2b, 0xfe, 0x10, 0x2a, 0x21, 0x1b, 0xfc, 0x02, 0x09,
    0xfb, 0x2c, 0x02, 0x00, 0x1d, 0x29, 0x10, 0x0b, 0xfe, 0xfa, 0x15, 0x1e, 0xef,
    0x10, 0x0d, 0x2e, 0x0f, 0x04, 0xfc, 0x0f, 0x24, 0x06, 0x0a, 0x2b, 0x11, 0xed,
    0xf2, 0x17, 0x18, 0x12, 0x00, 0xcc, 0x24, 0x04, 0x0a, 0xef, 0xf4, 0xf2, 0x14,
    0x0a, 0x0b, 0x1e, 0x19, 0xf2, 0xf9, 0x16, 0xfc, 0x1b, 0x08, 0x14, 0xf3, 0x02,
    0x1d, 0x03, 0x0c, 0x0a, 0xff, 0xfb, 0xf5, 0x30, 0x14, 0x16, 0xff, 0xf2, 0xf7,
    0x24, 0xe8, 0xf4, 0x1e, 0x07, 0xfc, 0xd5, 0x01, 0xe8, 0x0e, 0x1f, 0xd8, 0x12,
    0x18, 0x19, 0xe4, 0x18, 0x10, 0x1d, 0x05, 0x26, 0x21, 0x1b, 0x0d, 0xeb, 0x05,
    0x1e, 0x0d, 0x00, 0xff, 0x1d, 0x10, 0x29, 0xf4, 0xe8, 0x30, 0xfc, 0x08, 0xf2,
    0xc7, 0xea, 0x0a, 0x2b, 0x03, 0x04, 0x3b, 0x04, 0x11, 0xfb, 0x08, 0x0b, 0x0c,
    0xf7, 0xfe, 0x0b, 0x0b, 0xe6, 0x18, 0xe6, 0x0d, 0xf4, 0x01, 0x03, 0xe5, 0xff,
    0xdd, 0x00, 0x16, 0x06, 0xfd, 0xe0, 0xf1, 0xf9, 0xfc, 0xf9, 0xfa, 0x00, 0xfb,
    0xe8, 0xdb, 0xf5, 0xec, 0xfe, 0xe8, 0x22, 0x06, 0x25, 0xed, 0xf2, 0x05, 0x03,
    0x16, 0x06, 0xff, 0xf2, 0xea, 0xef, 0xdf, 0xf8, 0x16, 0x07, 0x14, 0xdd, 0x08,
    0xee, 0x01, 0xe6, 0xec, 0xfc, 0x05, 0x11, 0xfd, 0xee, 0xf3, 0xef, 0x04, 0x23,
    0x05, 0x1b, 0xf4, 0xfe, 0xfe, 0x12, 0x13, 0x09, 0xf5, 0xeb, 0xe9, 0xf3, 0xeb,
    0x0d, 0xfa, 0x01, 0xf9, 0x03, 0xe8, 0xf5, 0xf5, 0xf7, 0xcd, 0xf2, 0x0c, 0x1e,
    0xe6, 0x0f, 0xed, 0xf7, 0x0a, 0x00, 0x16, 0xf0, 0x18, 0x12, 0x05, 0x0a, 0xfa,
    0xfa, 0xf7, 0x08, 0xef, 0x07, 0xe3, 0x07, 0x16, 0xfd, 0xe1, 0xfe, 0xf9, 0x0a,
    0xfb, 0xdc, 0xe6, 0xfb, 0x04, 0xe5, 0xf4, 0x1f, 0xfe, 0x0b, 0x11, 0x15, 0x02,
    0x1b, 0x0d, 0x08, 0x08, 0x06, 0x05, 0x21, 0xde, 0xf5, 0xe2, 0xf5, 0xec, 0x0c,
    0x02, 0x05, 0xea, 0x06, 0x1f, 0xfc, 0xeb, 0xe5, 0x16, 0x0c, 0x0a, 0x09, 0xd4,
    0x1b, 0xeb, 0xee, 0x10, 0xee, 0x0a, 0xe9, 0xf2, 0x0e, 0x24, 0xef, 0x0e, 0xf6,
    0xf6, 0xea, 0x00, 0x11, 0x16, 0xf9, 0xf6, 0xfd, 0xed, 0x00, 0x0b, 0x10, 0xfe,
    0xf4, 0xcb, 0x00, 0x0f, 0x0b, 0xdd, 0x0f, 0x06, 0x02, 0x0f, 0x05, 0x22, 0x17,
    0x0e, 0x12, 0xf1, 0x12, 0xe4, 0x28, 0xf6, 0x04, 0xf4, 0xf9, 0x05, 0x1f, 0xf9,
    0x09, 0xe3, 0x04, 0xff, 0x0f, 0xee, 0x0a, 0xfb, 0x18, 0xfd, 0x06, 0xf3, 0xe0,
    0xef, 0x17, 0xea, 0x0e, 0xfe, 0x0e, 0x01, 0xec, 0xfe, 0xfc, 0x01, 0x18, 0xf5,
    0xf9, 0x02, 0xe7, 0x08, 0x0a, 0xca, 0x14, 0xfb, 0x16, 0xcf, 0x01, 0xe3, 0x0d,
    0x36, 0xef, 0xe5, 0xf9, 0xff, 0xf2, 0xff, 0xfc, 0xff, 0x00, 0xe7, 0xea, 0xf8,
    0xfe, 0xfb, 0xee, 0xe9, 0x14, 0xfc, 0x0b, 0xf6, 0xf5, 0xde, 0x15, 0xf4, 0x11,
    0x15, 0xee, 0x06, 0xf4, 0xe3, 0x18, 0x0b, 0xee, 0xfb, 0xf4, 0x05, 0x1f, 0x00,
    0xfd, 0x0a, 0x08, 0xe3, 0x1b, 0xee, 0xfb, 0x05, 0x00, 0xed, 0x03, 0x0d, 0xe0,
    0xf1, 0xf1, 0x02, 0x0e, 0xec, 0xf5, 0xef, 0xf7, 0x1a, 0xe0, 0xe5, 0xf5, 0x02,
    0xdc, 0x0b, 0xd1, 0xf9, 0x19, 0x08, 0xf6, 0xfc, 0x0c, 0xe2, 0xf4, 0xf2, 0x04,
    0xe3, 0xfd, 0xe9, 0xfc, 0xfa, 0x13, 0x07, 0x17, 0xe6, 0x16, 0xf7, 0x05, 0xfe,
    0x02, 0xef, 0xf8, 0xee, 0xd2, 0xec, 0x0d, 0x0c, 0xe7, 0xf8, 0x18, 0x0b, 0x02,
    0xfb, 0x0b, 0x0c, 0xfa, 0x0a, 0x17, 0xf2, 0x00, 0xe4, 0xd9, 0xf8, 0x21, 0xeb,
    0x15, 0xf0, 0x04, 0x27, 0x0e, 0xef, 0x0b, 0xfc, 0xfe, 0x01, 0xe5, 0x08, 0xf6,
    0xf5, 0xf8, 0xfc, 0x17, 0x0b, 0x14, 0x3c, 0xfe, 0x16, 0x29, 0xf6, 0x0c, 0x15,
    0x06, 0x1a, 0x15, 0xfa, 0xea, 0xf6, 0x13, 0x02, 0xf9, 0x14, 0x15, 0x08, 0xfe,
    0xf1, 0x01, 0x11, 0x4d, 0x33, 0x0f, 0x1f, 0x1c, 0xfb, 0x0c, 0x17, 0x1c, 0x23,
    0x26, 0x16, 0xe1, 0x01, 0x11, 0x12, 0xf2, 0xf9, 0x4b, 0xf7, 0xf4, 0x09, 0x06,
    0x0e, 0xf6, 0x35, 0x22, 0x04, 0x06, 0xfc, 0xed, 0xf6, 0xbf, 0xf3, 0x1c, 0x20,
    0xf7, 0xfa, 0x08, 0xe1, 0x0a, 0xf8, 0xe1, 0xf9, 0x1c, 0xf4, 0x12, 0x25, 0xf8,
    0x02, 0x27, 0xe6, 0xf0, 0x01, 0xf7, 0x1f, 0xe0, 0xd8, 0xf7, 0xe5, 0xe4, 0x0d,
    0x11, 0x0b, 0xfc, 0xe8, 0x1a, 0xfb, 0x1f, 0xf9, 0x12, 0x07, 0x14, 0x0a, 0xe7,
    0xf2, 0xf9, 0x13, 0xe7, 0xfa, 0xf1, 0xcf, 0x7f, 0x09, 0xf6, 0x02, 0xdc, 0x19,
    0x03, 0xc7, 0x06, 0xeb, 0xf2, 0x09, 0xf5, 0xdc, 0xf6, 0x27, 0xe2, 0xd5, 0xfd,
    0x01, 0x01, 0x0a, 0x14, 0xc7, 0xdb, 0x03, 0xd9, 0x05, 0xec, 0x03, 0xfa, 0xf1,
    0xf8, 0x33, 0x04, 0x09, 0xfb, 0xed, 0xf7, 0x10, 0xfd, 0x05, 0xf7, 0x05, 0xd8,
    0xee, 0x0e, 0xe0, 0xda, 0x01, 0xe8, 0x01, 0x14, 0x08, 0xf2, 0xf4, 0xc4, 0xd8,
    0xf4, 0xf2, 0x0d, 0x1b, 0x1e, 0xe0, 0x25, 0x0c, 0x13, 0xfb, 0x07, 0xe6, 0x01,
    0xea, 0x00, 0x09, 0x09, 0x11, 0xf1, 0x08, 0x1a, 0xed, 0xef, 0x0f, 0xd8, 0xef,
    0x08, 0xfa, 0x0c, 0x0d, 0xd5, 0xd6, 0xd8, 0xee, 0x13, 0xfc, 0xfb, 0xec, 0x0c,
    0xef, 0xfe, 0xf1, 0x04, 0xd9, 0xff, 0x01, 0x2f, 0xf3, 0xfa, 0xf6, 0xec, 0x07,
    0xcb, 0x18, 0xfe, 0x00, 0x03, 0xf0, 0x20, 0xff, 0xf9, 0x23, 0xf6, 0xf1, 0xfa,
    0xe9, 0x05, 0x04, 0x18, 0xec, 0x11, 0xdf, 0xf3, 0xe5, 0x0a, 0xf9, 0xec, 0xfd,
    0x06, 0xf1, 0xe3, 0x01, 0x00, 0x06, 0xcf, 0xef, 0xd8, 0x02, 0xe5, 0xe4, 0x19,
    0x0f, 0xf2, 0xf6, 0xfc, 0xef, 0x27, 0xf6, 0x13, 0x1c, 0x1f, 0xda, 0x11, 0x17,
    0xd0, 0xf4, 0x05, 0xe9, 0x0b, 0xec, 0x14, 0x08, 0xf7, 0x10, 0x08, 0x16, 0xf6,
    0xda, 0xfd, 0x03, 0xdf, 0xfb, 0xf8, 0xfe, 0x07, 0xeb, 0xd0, 0x1b, 0xf9, 0x02,
    0x04, 0xea, 0xee, 0xf0, 0x06, 0xfe, 0xe9, 0xeb, 0x0a, 0xed, 0x1e, 0xf2, 0x17,
    0x22, 0xf1, 0x0f, 0xe3, 0x14, 0xd7, 0xec, 0x18, 0xf1, 0x1d, 0xf8, 0x01, 0xfc,
    0xf4, 0xf7, 0xca, 0xef, 0x12, 0xf6, 0xf9, 0xfa, 0xea, 0xf1, 0xca, 0x06, 0xe1,
    0x0d, 0x07, 0xfa, 0xfa, 0xee, 0xeb, 0xfa, 0x0d, 0x11, 0x10, 0xf9, 0xf0, 0xfb,
    0xde, 0xe8, 0xf9, 0x0b, 0x14, 0xf7, 0xf6, 0xeb, 0xf9, 0xf6, 0x05, 0x0c, 0x2b,
    0x0b, 0xfa, 0xfd, 0x0f, 0xf1, 0x25, 0x14, 0x11, 0x03, 0xff, 0xd9, 0xf2, 0xf1,
    0xed, 0x16, 0xf4, 0xf3, 0x01, 0x2c, 0x06, 0x0a, 0xfd, 0xf6, 0x08, 0xea, 0x1c,
    0x08, 0xc1, 0xee, 0xf0, 0xed, 0xdf, 0xeb, 0xf5, 0xe3, 0x21, 0x04, 0x10, 0xf2,
    0xe5, 0xe3, 0xff, 0x0b, 0x07, 0x18, 0xe9, 0x0d, 0xeb, 0xe1, 0x25, 0xec, 0xff,
    0x1f, 0xe2, 0xde, 0x25, 0xfc, 0xe6, 0xf6, 0xfb, 0xf5, 0xf5, 0xfb, 0x21, 0x06,
    0xff, 0xed, 0x1d, 0x01, 0xee, 0xe3, 0x14, 0x05, 0x02, 0x03, 0x0f, 0x08, 0xe7,
    0x02, 0xe7, 0xf2, 0x6c, 0xbe, 0xf8, 0x06, 0xed, 0xee, 0x0e, 0x10, 0x04, 0xe6,
    0xf4, 0xeb, 0x00, 0x07, 0x0f, 0x06, 0xf8, 0xce, 0x05, 0x09, 0xfc, 0xfe, 0x0a,
    0xf7, 0xf4, 0xf6, 0x13, 0xe4, 0x15, 0x13, 0xf1, 0x08, 0x31, 0xe5, 0x00, 0xed,
    0xf9, 0x10, 0xfb, 0xfa, 0xed, 0xe7, 0xd0, 0x00, 0xf5, 0x0c, 0xfc, 0xcb, 0x07,
    0xf9, 0x16, 0xe8, 0xe6, 0xf1, 0xff, 0xe3, 0xf4, 0x0e, 0x15, 0xfa, 0x12, 0xfa,
    0x14, 0x0b, 0x03, 0xdd, 0xfb, 0xfb, 0xe7, 0xe8, 0x29, 0x0e, 0xf9, 0xd9, 0xe0,
    0xd0, 0xfe, 0x05, 0x27, 0x1a, 0x17, 0xdf, 0xeb, 0xf9, 0xc9, 0x17, 0xf7, 0xeb,
    0xfb, 0x05, 0x19, 0xf2, 0x01, 0x0e, 0x0a, 0x22, 0xc9, 0xf3, 0xf1, 0xee, 0xe9,
    0xfd, 0x1d, 0xef, 0xfa, 0x00, 0xdd, 0xe9, 0x03, 0xf5, 0x21, 0x17, 0x08, 0xbf,
    0x23, 0xf2, 0xf4, 0x02, 0x0c, 0xeb, 0x0b, 0xec, 0x0c, 0x04, 0xe6, 0x1d, 0x11,
    0x18, 0xfa, 0x01, 0x12, 0xfb, 0xfe, 0x0b, 0xfe, 0x0c, 0x0a, 0xee, 0xf4, 0xec,
    0x1b, 0x0a, 0xff, 0xff, 0x1a, 0xf3, 0x1a, 0xfe, 0xff, 0x02, 0xee, 0x04, 0xf1,
    0xf0, 0x0a, 0xfa, 0xfd, 0xfb, 0x1b, 0xf7, 0xfb, 0x01, 0x14, 0xe1, 0x12, 0x19,
    0x0b, 0xee, 0x0a, 0x07, 0xed, 0x0a, 0x12, 0x02, 0xfa, 0x1a, 0x0a, 0x0d, 0xde,
    0x01, 0xda, 0x16, 0x00, 0xfe, 0x02, 0xf5, 0xff, 0xe3, 0xe4, 0x05, 0x08, 0xfb,
    0x05, 0xed, 0xe2, 0xe1, 0xf7, 0x25, 0x14, 0x0b, 0xf9, 0x27, 0x09, 0xef, 0xe8,
    0xfb, 0x1e, 0x2f, 0x02, 0xd1, 0xf3, 0x19, 0xf0, 0xfb, 0xfa, 0xf3, 0xf2, 0xf5,
    0x0a, 0x1c, 0x17, 0x1f, 0xf1, 0x07, 0x0e, 0xf5, 0xfe, 0x0e, 0x03, 0x00, 0x1e,
    0xf8, 0x07, 0xe4, 0x27, 0x07, 0x0e, 0x1b, 0x03, 0xfe, 0x0f, 0xf3, 0x0d, 0xfd,
    0x00, 0x0d, 0x15, 0xfc, 0x04, 0x16, 0x03, 0x15, 0x09, 0xfe, 0xeb, 0x0f, 0x2b,
    0xf1, 0xf4, 0x11, 0xbf, 0xf5, 0x29, 0xf5, 0xeb, 0xa8, 0xf0, 0xf4, 0x07, 0x1d,
    0xfd, 0xef, 0x05, 0xde, 0xf4, 0xdd, 0xdd, 0x01, 0xf0, 0xfa, 0x1a, 0xb5, 0xfb,
    0xfb, 0x01, 0x0a, 0x02, 0x0c, 0x2a, 0xeb, 0x06, 0xdf, 0xff, 0xe4, 0x0a, 0x0a,
    0x06, 0xe7, 0x11, 0xf6, 0xf9, 0x01, 0xf6, 0xd8, 0x12, 0xe7, 0xf5, 0xdc, 0xfb,
    0x17, 0xfb, 0x05, 0x17, 0xbe, 0x06, 0xe6, 0xf9, 0x20, 0x01, 0x13, 0xec, 0xde,
    0xf3, 0xda, 0xe6, 0xee, 0x18, 0xf2, 0xee, 0xcc, 0xdf, 0xed, 0x18, 0x03, 0x03,
    0xed, 0x10, 0xf7, 0xf7, 0xf7, 0x23, 0xf3, 0x03, 0x10, 0xfe, 0xed, 0x01, 0x02,
    0x16, 0x1b, 0x12, 0x05, 0xdf, 0x0f, 0xf4, 0xfb, 0xeb, 0xec, 0x1d, 0x05, 0xfd,
    0xf1, 0xfd, 0xfe, 0x1a, 0x0f, 0x1c, 0x2a, 0x2b, 0xdb, 0x06, 0xfe, 0xe6, 0xf4,
    0x12, 0x03, 0x16, 0xec, 0x09, 0x06, 0xfe, 0x0d, 0xfa, 0x03, 0x00, 0xe0, 0xf2,
    0xf3, 0xff, 0xee, 0x19, 0x03, 0xf1, 0xd5, 0x06, 0xdc, 0x0f, 0xed, 0x13, 0xf8,
    0x18, 0x02, 0xe1, 0x05, 0x09, 0x09, 0x24, 0xe8, 0x09, 0x13, 0x1a, 0x08, 0xea,
    0x0d, 0x10, 0x10, 0x11, 0x29, 0xf1, 0xef, 0x0e, 0x1f, 0x12, 0xeb, 0xf2, 0xe2,
    0x13, 0xfa, 0x28, 0x09, 0x02, 0xfb, 0x0f, 0x10, 0xfe, 0x16, 0xfd, 0xf4, 0x23,
    0x07, 0x21, 0x26, 0xed, 0x0a, 0xf6, 0xfa, 0xfb, 0x09, 0x13, 0x0a, 0xfc, 0xec,
    0x03, 0x02, 0xfb, 0x06, 0xf8, 0xde, 0xd3, 0xea, 0x1b, 0x17, 0x12, 0x27, 0x06,
    0xfa, 0xf4, 0x13, 0x0d, 0x2a, 0x16, 0xfe, 0xd4, 0x1f, 0xea, 0x09, 0x24, 0xfd,
    0x13, 0x16, 0x00, 0xd6, 0xfa, 0x0f, 0x09, 0xfe, 0x0a, 0x10, 0x0a, 0x01, 0xe7,
    0xf3, 0x13, 0x09, 0xf3, 0xed, 0xf5, 0x04, 0x1d, 0x11, 0x08, 0xff, 0x02, 0xf7,
    0xdc, 0xff, 0xf8, 0x05, 0x14, 0xf6, 0x00, 0xf8, 0x3a, 0xe0, 0xf0, 0x0d, 0xd6,
    0x05, 0x0f, 0xfe, 0xeb, 0xe7, 0xde, 0xdd, 0x01, 0xf4, 0xfe, 0x13, 0xfb, 0xab,
    0x3d, 0x0d, 0xe1, 0x05, 0xf8, 0x25, 0xff, 0xf7, 0xfb, 0x13, 0x15, 0x1f, 0xff,
    0xf8, 0x07, 0xef, 0xf0, 0xf4, 0xcf, 0x1e, 0x28, 0x0d, 0xf2, 0xf1, 0xda, 0xf2,
    0xeb, 0x13, 0x05, 0xfa, 0x0b, 0xde, 0xf4, 0xe8, 0xe7, 0x1d, 0x07, 0x1c, 0x12,
    0xd6, 0x0d, 0xf0, 0x23, 0x27, 0x11, 0x08, 0x22, 0xdb, 0xfc, 0xdc, 0xea, 0xda,
    0x21, 0x0f, 0x0d, 0x0c, 0xff, 0x02, 0x19, 0x16, 0x0b, 0xf7, 0x14, 0xe2, 0xff,
    0xf2, 0xf3, 0xde, 0x0c, 0x11, 0x15, 0xdf, 0x18, 0x23, 0x00, 0x25, 0x05, 0xfb,
    0x0b, 0x13, 0xec, 0xd7, 0x02, 0x11, 0x11, 0x0d, 0xf4, 0xde, 0xed, 0x0e, 0x1d,
    0x02, 0x0c, 0xf0, 0x12, 0xff, 0x20, 0xfb, 0xab, 0x0c, 0x05, 0x16, 0x1f, 0xcc,
    0x1b, 0xe6, 0x09, 0x0f, 0x00, 0x08, 0x12, 0x05, 0xdf, 0xdf, 0x2d, 0x1c, 0x09,
    0x01, 0xfa, 0x08, 0xdf, 0xf2, 0x23, 0xe8, 0xfb, 0xf1, 0x0c, 0xd6, 0x11, 0x07,
    0xcb, 0xe8, 0xf0, 0xfe, 0xf1, 0xd7, 0x12, 0x16, 0xfe, 0xfb, 0x13, 0x23, 0x41,
    0xfe, 0xf6, 0xec, 0x0e, 0x04, 0x0f, 0x0d, 0x00, 0xf6, 0xcb, 0x09, 0x11, 0xf4,
    0x07, 0xf7, 0xfc, 0xfd, 0x2e, 0xeb, 0x11, 0x05, 0x0c, 0xf5, 0xfd, 0x01, 0xfa,
    0xf4, 0xde, 0x04, 0xf7, 0xf3, 0x07, 0x18, 0xf7, 0x07, 0x0f, 0x18, 0xe4, 0xf8,
    0xfc, 0xe0, 0xfc, 0x1c, 0x18, 0x07, 0x07, 0x02, 0x15, 0xf2, 0xba, 0x08, 0xda,
    0xf4, 0xf4, 0xfc, 0xe5, 0x0a, 0xf7, 0x1a, 0xfa, 0x02, 0x08, 0x24, 0x03, 0xe2,
    0xee, 0xee, 0x07, 0x1a, 0xf6, 0x05, 0xf6, 0xe7, 0xf4, 0x0e, 0x12, 0xf7, 0x07,
    0x05, 0xf2, 0x07, 0xc1, 0xf4, 0xf3, 0xfb, 0x18, 0xed, 0x13, 0x01, 0x1d, 0x1b,
    0xfa, 0xf9, 0x03, 0x07, 0x27, 0xf7, 0xfc, 0x12, 0xe3, 0xef, 0x12, 0x00, 0x00,
    0xdb, 0xe8, 0xf0, 0xe8, 0xdf, 0x15, 0x23, 0x14, 0xe7, 0xe7, 0x09, 0xf9, 0xf4,
    0x22, 0x1b, 0x11, 0x2c, 0x00, 0x10, 0x05, 0x07, 0xe5, 0x12, 0x1b, 0x2c, 0xce,
    0x09, 0xfb, 0x11, 0x18, 0x09, 0xef, 0xe3, 0x25, 0xf9, 0x08, 0xfe, 0x03, 0x09,
    0x16, 0xe3, 0x19, 0xdd, 0xea, 0xfa, 0x1b, 0x0f, 0x13, 0x10, 0xf9, 0x04, 0x0b,
    0x16, 0xfa, 0x14, 0xdf, 0xf9, 0x10, 0x02, 0xdb, 0xf8, 0x0a, 0x14, 0xfa, 0xfb,
    0x13, 0x04, 0x26, 0xfc, 0x25, 0x09, 0xf3, 0xdd, 0x14, 0xeb, 0xe4, 0xe2, 0xfa,
    0x1d, 0x0f, 0xed, 0x1e, 0xf5, 0xeb, 0x10, 0x08, 0x15, 0xfb, 0x2c, 0xe4, 0xf7,
    0x02, 0x00, 0x02, 0xfd, 0xff, 0x11, 0x06, 0xfa, 0x00, 0xe5, 0xf9, 0x05, 0xef,
    0xe3, 0x0f, 0xf3, 0xc1, 0xf8, 0x04, 0x13, 0x18, 0xcd, 0xe7, 0x07, 0xf8, 0x20,
    0xef, 0xff, 0xf0, 0x15, 0xf2, 0xc3, 0xd5, 0x05, 0x11, 0xec, 0xee, 0xd4, 0xff,
    0xe9, 0x0c, 0x0b, 0xee, 0xd6, 0x00, 0xbf, 0x25, 0xfa, 0xc8, 0x13, 0xfe, 0x20,
    0xf6, 0xf4, 0x03, 0x28, 0x11, 0x18, 0x18, 0x0f, 0x18, 0x27, 0xf5, 0xd9, 0x1a,
    0x16, 0x03, 0x07, 0x03, 0x32, 0xf9, 0xe4, 0xed, 0xfe, 0xff, 0x10, 0xf9, 0xfa,
    0x29, 0xf5, 0x04, 0xff, 0x0d, 0x0d, 0x08, 0x15, 0x06, 0x1d, 0xf8, 0xf4, 0xf3,
    0x01, 0x28, 0x1d, 0xf6, 0xe3, 0xee, 0x37, 0xdd, 0x10, 0x0b, 0x02, 0xf0, 0xea,
    0x09, 0x0b, 0xea, 0x0b, 0x04, 0xf3, 0xe1, 0x13, 0x06, 0x1d, 0xee, 0xfc, 0xdf,
    0x15, 0x01, 0x25, 0x24, 0x0a, 0x15, 0x1a, 0xbe, 0xee, 0xff, 0x04, 0x0e, 0x18,
    0xee, 0x14, 0xf7, 0x1c, 0x06, 0xf5, 0x07, 0xfb, 0xec, 0x15, 0xf5, 0xfd, 0x14,
    0xfd, 0xed, 0x0b, 0x03, 0x13, 0xe2, 0xe3, 0x0a, 0x0f, 0x17, 0x00, 0x0e, 0x19,
    0xe0, 0xd7, 0xf7, 0xe4, 0xf4, 0xfd, 0x05, 0x02, 0xed, 0x1b, 0xf3, 0xeb, 0xd4,
    0xe1, 0xe0, 0x0a, 0xed, 0xde, 0x16, 0x0a, 0xe9, 0x1b, 0xf3, 0x10, 0xf6, 0xfd,
    0x14, 0x17, 0x02, 0xf0, 0x12, 0xfe, 0x4e, 0xeb, 0xee, 0x04, 0xec, 0xfa, 0xf6,
    0xfb, 0xdc, 0x0a, 0xfa, 0xf0, 0x07, 0xf5, 0x19, 0x04, 0xed, 0x06, 0xf3, 0x17,
    0xe5, 0x0c, 0xec, 0x0d, 0xf4, 0xd9, 0x02, 0xff, 0x23, 0xfe, 0x00, 0x0c, 0x06,
    0xfa, 0x11, 0xdd, 0xff, 0x00, 0x06, 0xff, 0xf3, 0x07, 0xe4, 0xe3, 0xf6, 0xed,
    0xec, 0x01, 0xd3, 0xdf, 0xf6, 0x16, 0xdf, 0x09, 0xff, 0xfd, 0x01, 0xea, 0xf2,
    0x07, 0x0f, 0xec, 0xe7, 0x0e, 0x11, 0x05, 0xf7, 0xe9, 0xeb, 0x14, 0x15, 0x16,
    0x00, 0x0b, 0x00, 0xf4, 0xd5, 0xee, 0xf1, 0xf0, 0x00, 0xef, 0x23, 0x1e, 0xf2,
    0x07, 0x06, 0x0d, 0x0b, 0xf8, 0xfd, 0xf7, 0x1e, 0x05, 0xe9, 0xf3, 0x0b, 0x07,
    0xec, 0xed, 0xe4, 0xff, 0x11, 0x02, 0xe6, 0xf8, 0x12, 0xeb, 0xf8, 0xf8, 0x11,
    0xe1, 0xfd, 0xc7, 0x2d, 0x0c, 0xf3, 0x0d, 0xeb, 0x07, 0xe4, 0xcd, 0xe5, 0x07,
    0x24, 0xf0, 0xdb, 0x08, 0xe4, 0xd6, 0xfc, 0xf0, 0x06, 0x1d, 0x15, 0x1b, 0xfc,
    0x09, 0x0f, 0xf0, 0xd0, 0xf2, 0xf8, 0x17, 0x11, 0xe7, 0xee, 0x1e, 0x15, 0x04,
    0x00, 0x17, 0xfa, 0xdf, 0x13, 0x20, 0x25, 0xf4, 0x02, 0xea, 0x30, 0x23, 0xec,
    0x08, 0x05, 0x19, 0xf6, 0x26, 0x06, 0x0d, 0x13, 0x0c, 0x16, 0x16, 0xf3, 0x02,
    0xfd, 0x10, 0xdf, 0x09, 0x1f, 0x37, 0x14, 0xe8, 0x19, 0x10, 0x08, 0x2e, 0xf0,
    0x0b, 0x1b, 0x3e, 0xfb, 0xf1, 0x03, 0x22, 0xed, 0x07, 0x1a, 0x14, 0x0e, 0x0a,
    0xfd, 0x18, 0x24, 0x0e, 0x05, 0x08, 0x18, 0x07, 0xf3, 0x0d, 0x0f, 0x09, 0x35,
    0x00, 0x0f, 0x06, 0x26, 0x10, 0xf9, 0xf8, 0x01, 0x1a, 0x21, 0x25, 0x0f, 0x21,
    0xf5, 0x05, 0x10, 0x0b, 0x15, 0x02, 0x17, 0x08, 0xe8, 0xf8, 0x0f, 0xef, 0xed,
    0xf4, 0xfa, 0x07, 0x1c, 0x08, 0x3a, 0xf9, 0x06, 0x08, 0x18, 0x18, 0xfd, 0xfd,
    0xf6, 0x06, 0x1f, 0x4b, 0x0b, 0x0b, 0xdd, 0x1f, 0x0e, 0x16, 0xf6, 0x02, 0x07,
    0x00, 0xf8, 0x15, 0x03, 0x13, 0xf4, 0x06, 0xee, 0x1c, 0x07, 0x29, 0x31, 0x1d,
    0xe2, 0xfa, 0x0d, 0x04, 0x05, 0x01, 0xfd, 0x0c, 0xe1, 0xf9, 0x0a, 0x14, 0x04,
    0x1f, 0x09, 0x1f, 0xfe, 0xf2, 0xfa, 0x02, 0xee, 0x10, 0xfa, 0xec, 0xf0, 0xeb,
    0xea, 0x15, 0x0a, 0x25, 0x1c, 0xed, 0xfc, 0x0a, 0xfe, 0x29, 0x1a, 0xf8, 0xfb,
    0x15, 0xde, 0xf3, 0xfc, 0x0f, 0xf2, 0x17, 0x07, 0x15, 0xf1, 0xff, 0xff, 0xf8,
    0xff, 0x0e, 0x0a, 0xed, 0x09, 0xfe, 0x1e, 0x11, 0x14, 0x15, 0x15, 0xe7, 0x01,
    0x05, 0xfc, 0x18, 0xf0, 0xf3, 0xef, 0xfd, 0x11, 0xf9, 0x08, 0x0a, 0xfb, 0x09,
    0xea, 0x02, 0x06, 0x06, 0xfc, 0x02, 0xf7, 0x0c, 0xbd, 0xd6, 0xdd, 0x02, 0x00,
    0x14, 0x31, 0x0d, 0x1a, 0xe6, 0x01, 0x20, 0x18, 0x1d, 0x0f, 0xf3, 0x03, 0x09,
    0xfd, 0x08, 0x19, 0x15, 0xf5, 0x11, 0x0d, 0x0a, 0x06, 0x15, 0x11, 0xe0, 0xf2,
    0x10, 0xfb, 0x1c, 0x2c, 0xed, 0xf3, 0x0b, 0x16, 0x1e, 0x05, 0x0c, 0x0a, 0x0d,
    0x1f, 0x1e, 0x1e, 0x08, 0x11, 0xf8, 0xc7, 0x02, 0xfa, 0x1d, 0xef, 0x1d, 0xee,
    0xf6, 0x14, 0xf8, 0x22, 0x15, 0x16, 0x15, 0xd2, 0x0e, 0xf2, 0x01, 0xbc, 0x0f,
    0xe9, 0x33, 0xf2, 0x18, 0x02, 0x09, 0xf5, 0x19, 0x09, 0x03, 0x1a, 0x0a, 0xc5,
    0xde, 0x1e, 0xed, 0x0b, 0x09, 0xf3, 0x04, 0x01, 0xdb, 0xf7, 0x03, 0x32, 0xf8,
    0xcd, 0xea, 0xf3, 0x14, 0xd4, 0x03, 0xf0, 0xf9, 0xeb, 0x04, 0x05, 0x06, 0xf2,
    0x10, 0x0a, 0xf6, 0xff, 0x0e, 0x0c, 0xf2, 0xfc, 0xee, 0x01, 0x08, 0x0b, 0xfc,
    0xfc, 0xb4, 0xf3, 0x09, 0x23, 0xfe, 0xd9, 0xd3, 0x02, 0xf9, 0xfe, 0xfd, 0xff,
    0xf6, 0x0a, 0x0d, 0x08, 0x02, 0x05, 0x12, 0xfc, 0xf5, 0x07, 0xfa, 0xee, 0xee,
    0x08, 0xd9, 0xf8, 0xfa, 0x12, 0xdf, 0xf6, 0xbc, 0x1e, 0x00, 0x17, 0xfa, 0x11,
    0xdb, 0x0e, 0x09, 0x33, 0xf2, 0x11, 0xff, 0x21, 0x0a, 0x02, 0x08, 0xf2, 0x01,
    0x00, 0xed, 0x01, 0xfd, 0xec, 0x01, 0xf6, 0xf7, 0x03, 0xe2, 0x02, 0xe2, 0xf6,
    0xdd, 0x16, 0x04, 0x05, 0xfd, 0x07, 0xdf, 0xf9, 0x22, 0x1c, 0xe7, 0x16, 0xf8,
    0x2f, 0xe5, 0x0a, 0x0f, 0x0d, 0x09, 0xdf, 0xe1, 0xf0, 0x04, 0xd6, 0xfb, 0x13,
    0xea, 0x08, 0xf8, 0xf9, 0xf7, 0x03, 0xc0, 0x1a, 0x14, 0x21, 0x06, 0xfc, 0xd9,
    0x08, 0x24, 0x28, 0xff, 0x1f, 0xf8, 0x2c, 0xd3, 0x1d, 0x1b, 0xfd, 0x0b, 0xda,
    0xdc, 0xf6, 0x13, 0xff, 0xe0, 0x25, 0xf8, 0xf2, 0x05, 0xe3, 0x12, 0x03, 0xe9,
    0x20, 0x0c, 0x24, 0x02, 0xcb, 0xcb, 0x0a, 0x1d, 0xf4, 0x18, 0xfd, 0xfa, 0x09,
    0xf6, 0x28, 0x0f, 0x0f, 0x08, 0x02, 0xdb, 0x04, 0x0a, 0x0f, 0xf6, 0x1b, 0xf8,
    0xf2, 0x15, 0xfd, 0x0e, 0xfe, 0xfd, 0xf0, 0xe9, 0xef, 0xfb, 0x0f, 0x18, 0xf0,
    0xff, 0xd7, 0x02, 0xf0, 0x09, 0x08, 0xfe, 0x05, 0x04, 0x03, 0x11, 0x0c, 0x07,
    0xf4, 0x09, 0xf5, 0x10, 0xfe, 0xf8, 0xf4, 0x07, 0x0c, 0xfe, 0x03, 0xf5, 0x00,
    0xf7, 0xea, 0x0f, 0xf5, 0x1d, 0x12, 0x07, 0xd9, 0x17, 0x1f, 0x0e, 0x0a, 0x0e,
    0x19, 0x22, 0xe9, 0x2a, 0xfd, 0x25, 0xfe, 0x17, 0xb8, 0x01, 0x0b, 0x03, 0x0e,
    0xf7, 0xed, 0xf1, 0xff, 0xc7, 0x13, 0x0b, 0x41, 0xf4, 0xf5, 0xfb, 0x04, 0x24,
    0x2d, 0x14, 0xfe, 0xf7, 0x21, 0x18, 0xfe, 0xfc, 0xf4, 0xfa, 0xd0, 0xec, 0x04,
    0x17, 0xff, 0xff, 0x0b, 0xf3, 0xf7, 0xff, 0xe8, 0xe1, 0xea, 0xbd, 0x0a, 0x12,
    0x17, 0xef, 0xe2, 0xe4, 0x0c, 0x0d, 0x47, 0xfe, 0x20, 0xf8, 0x1a, 0x04, 0x13,
    0x05, 0xf9, 0x09, 0xfa, 0xd8, 0xef, 0xfc, 0xd1, 0xf6, 0xf5, 0x10, 0xf7, 0x04,
    0xf7, 0xf0, 0xe7, 0xcc, 0x2b, 0xfc, 0x1d, 0xf3, 0xdf, 0x0f, 0xf3, 0x35, 0xea,
    0xec, 0x26, 0x04, 0x25, 0x0c, 0x08, 0x0a, 0xf9, 0xf7, 0xf5, 0xd9, 0xf1, 0x13,
    0xdf, 0x0a, 0xf6, 0xfa, 0x1c, 0xf7, 0xff, 0xf3, 0xf8, 0x1a, 0x21, 0xf0, 0xfd,
    0x03, 0x05, 0x05, 0x13, 0x3b, 0x16, 0xe2, 0x19, 0xd7, 0x13, 0xe1, 0x12, 0x21,
    0x01, 0xd9, 0xf7, 0xe4, 0xfd, 0xfb, 0xd6, 0x30, 0x06, 0x29, 0x07, 0x0d, 0x0a,
    0xf2, 0xeb, 0x1d, 0x1f, 0x05, 0x16, 0x04, 0xf9, 0x05, 0x01, 0x29, 0x45, 0xff,
    0xf9, 0xe1, 0x0c, 0xf3, 0x0c, 0x0b, 0xe1, 0xda, 0xec, 0xf2, 0xec, 0x02, 0xdf,
    0xed, 0xf3, 0x04, 0x02, 0xef, 0xf8, 0x0c, 0x03, 0xfa, 0x19, 0x0b, 0xfa, 0xf6,
    0xe6, 0xda, 0x02, 0x09, 0x28, 0x1d, 0xf3, 0xf8, 0xe1, 0xfa, 0x28, 0x18, 0xf6,
    0xf9, 0xfc, 0xec, 0x0a, 0xfb, 0xdb, 0x15, 0x01, 0x0f, 0xee, 0x0c, 0xe3, 0x0c,
    0xfa, 0xd4, 0xe9, 0xfa, 0xf8, 0x01, 0xfa, 0xec, 0xff, 0xef, 0x42, 0x1c, 0xe6,
    0x0c, 0xfc, 0x09, 0xf7, 0x06, 0xf7, 0x1e, 0x05, 0x0b, 0xe9, 0x02, 0x02, 0x0b,
    0xfe, 0xf4, 0xfe, 0x1c, 0x00, 0x1a, 0x0e, 0xe4, 0xd4, 0x16, 0x1f, 0x02, 0xf2,
    0x15, 0x18, 0x0b, 0x07, 0x0c, 0x07, 0x0d, 0x17, 0x0f, 0xfc, 0x13, 0x03, 0x15,
    0xfa, 0x09, 0xf7, 0x0f, 0xe2, 0xfc, 0xfb, 0xfb, 0xf9, 0xe6, 0xf6, 0xfd, 0x10,
    0xe4, 0x06, 0xfc, 0x42, 0x04, 0xe1, 0x0e, 0xdf, 0x2a, 0xf1, 0xf4, 0xd9, 0xf1,
    0xfd, 0xfe, 0x10, 0x17, 0xc6, 0xf6, 0xe9, 0x07, 0x09, 0x11, 0xdd, 0xf7, 0xfb,
    0x03, 0xfc, 0xf2, 0xee, 0xf4, 0xf0, 0xfe, 0x01, 0x04, 0x2f, 0xe9, 0xe6, 0xfe,
    0xfc, 0x2a, 0xfe, 0xeb, 0x05, 0xf2, 0x2e, 0xfc, 0x02, 0x1c, 0xfa, 0x06, 0x0c,
    0xea, 0xe9, 0xeb, 0x98, 0xf3, 0x05, 0xf9, 0x0d, 0xda, 0xe4, 0xf5, 0xd8, 0x04,
    0x08, 0xf4, 0x1e, 0xe2, 0x06, 0x03, 0xee, 0x25, 0xcd, 0xc9, 0x03, 0xf4, 0x12,
    0x0e, 0xdc, 0x14, 0xbf, 0xe9, 0x0a, 0xd8, 0xd9, 0xe7, 0xb9, 0xdc, 0xe0, 0x07,
    0x20, 0xe2, 0xdd, 0xef, 0xd8, 0xf9, 0xf7, 0x0b, 0xfa, 0xca, 0xfa, 0xb6, 0x1d,
    0x1b, 0xf2, 0xf5, 0x1c, 0xc9, 0x12, 0x15, 0xfe, 0x12, 0xfd, 0xce, 0xd2, 0xe0,
    0xbf, 0xcb, 0xa2, 0x0d, 0xed, 0xf9, 0x0d, 0xfe, 0xf9, 0x03, 0xfb, 0x16, 0x03,
    0x05, 0xeb, 0xfa, 0xd7, 0xf4, 0xf3, 0x0d, 0xd8, 0xf5, 0xf8, 0x02, 0xfa, 0x09,
    0xf8, 0x14, 0xd6, 0xfb, 0xec, 0x0b, 0xe5, 0xd6, 0xdb, 0x03, 0xed, 0x0b, 0x17,
    0x02, 0xd8, 0xe2, 0x06, 0xf6, 0x17, 0x01, 0xfb, 0xff, 0xcc, 0xfc, 0x05, 0x08,
    0xf0, 0x08, 0x22, 0x01, 0xf8, 0xec, 0x12, 0x01, 0xe2, 0xfe, 0xd7, 0x09, 0xeb,
    0xfe, 0xcf, 0xe9, 0x00, 0x0a, 0x0e, 0xef, 0xcd, 0xe4, 0x08, 0xf4, 0x03, 0x00,
    0x10, 0x12, 0xdd, 0xea, 0xed, 0x11, 0x29, 0xfc, 0x04, 0x07, 0x1c, 0xe3, 0x02,
    0x25, 0x12, 0xfa, 0xfa, 0xd4, 0x13, 0xf6, 0xe9, 0x05, 0x0c, 0x0d, 0xf3, 0xf8,
    0x09, 0x16, 0xf6, 0xf2, 0xf4, 0x09, 0x1f, 0x19, 0xd6, 0x11, 0xf9, 0xf0, 0x15,
    0x0f, 0x18, 0xf4, 0xf2, 0x1c, 0xf3, 0x09, 0xde, 0x07, 0x03, 0xf3, 0x18, 0xf1,
    0x00, 0x15, 0x10, 0x11, 0x03, 0xe5, 0x06, 0xfc, 0x00, 0xe2, 0x12, 0xf6, 0x27,
    0xf2, 0xdc, 0xee, 0xfb, 0x1b, 0x09, 0xf7, 0x0d, 0xe3, 0x1d, 0x03, 0x0c, 0x20,
    0xfa, 0xdc, 0xc7, 0xd3, 0xf0, 0x08, 0xaf, 0xc5, 0x0b, 0x35, 0x08, 0xfc, 0xe9,
    0xe2, 0xf7, 0xfa, 0x02, 0x0e, 0x16, 0xed, 0xf0, 0x14, 0xdd, 0x06, 0xfc, 0xce,
    0xfa, 0xf8, 0x13, 0xed, 0xcb, 0x38, 0xde, 0xed, 0xca, 0xd5, 0x07, 0x01, 0x91,
    0xd7, 0x12, 0x2a, 0xf0, 0xe8, 0xf6, 0xd1, 0xf4, 0xf7, 0xeb, 0xe3, 0x1c, 0xe8,
    0xea, 0xe1, 0xef, 0x1e, 0x2d, 0xd6, 0x0d, 0x05, 0xff, 0xdf, 0xe2, 0x1d, 0xe2,
    0xe3, 0xf8, 0xe0, 0xe1, 0xdd, 0xbf, 0x1a, 0x06, 0x2d, 0xe0, 0xfe, 0xe8, 0xd2,
    0xfa, 0x1d, 0xf4, 0x01, 0xe3, 0xf9, 0xf9, 0xf5, 0x0a, 0x14, 0x1d, 0xd9, 0x28,
    0xf0, 0x07, 0xf4, 0xd9, 0x1e, 0xef, 0xae, 0xd7, 0xff, 0xe4, 0xc5, 0xd2, 0xe2,
    0x0a, 0x1f, 0x0d, 0xe7, 0x05, 0xd9, 0xe8, 0xe5, 0xfe, 0xf4, 0xdd, 0xef, 0xee,
    0xec, 0x0a, 0x16, 0xab, 0xf0, 0x39, 0xf8, 0x1a, 0xdc, 0xe4, 0x29, 0xe4, 0xec,
    0xfc, 0xe6, 0xf2, 0xe6, 0xcc, 0x05, 0x04, 0x0c, 0xf8, 0x02, 0xec, 0xde, 0xf4,
    0x09, 0xfb, 0xfd, 0xfa, 0x1b, 0xde, 0xf6, 0xff, 0x17, 0x41, 0xce, 0x1e, 0xdb,
    0x09, 0xed, 0xdd, 0x05, 0xe8, 0xef, 0xed, 0xee, 0x10, 0x04, 0xcc, 0x02, 0xfe,
    0x0e, 0x04, 0xdf, 0xc8, 0xf0, 0x11, 0x26, 0xee, 0x16, 0xfd, 0x1d, 0xe2, 0xf0,
    0xca, 0x15, 0x28, 0xed, 0x1e, 0x08, 0x11, 0xfc, 0xfd, 0x0c, 0x02, 0xf2, 0xe8,
    0xdb, 0xef, 0x03, 0xbb, 0x27, 0xff, 0xfb, 0xf4, 0xf8, 0xee, 0xea, 0x0c, 0xd3,
    0xe9, 0xfc, 0x16, 0x03, 0xe9, 0xf2, 0x07, 0x0c, 0x97, 0xf6, 0xfb, 0xfb, 0xed,
    0xf0, 0x01, 0xf8, 0xd3, 0x03, 0x06, 0x0e, 0x0d, 0x1e, 0xd9, 0xf1, 0x09, 0xef,
    0x23, 0xf4, 0x05, 0xfa, 0x0e, 0xed, 0xfb, 0x0e, 0x11, 0x18, 0xeb, 0x1d, 0x01,
    0x08, 0xa4, 0xf0, 0xd9, 0xfc, 0x19, 0xf4, 0xee, 0x01, 0xeb, 0x01, 0x04, 0x09,
    0x0d, 0x14, 0xa7, 0xce, 0x0b, 0xf2, 0x10, 0xe2, 0xd6, 0xd4, 0xf8, 0x0c, 0x05,
    0x06, 0x0f, 0xff, 0xe7, 0x17, 0xf0, 0x13, 0xe6, 0xe3, 0x08, 0xe9, 0x0e, 0xd3,
    0xde, 0x14, 0xd0, 0xe7, 0xe4, 0xdb, 0x15, 0xec, 0x9a, 0xc2, 0x14, 0xf9, 0xf1,
    0xc8, 0xf2, 0xea, 0xf5, 0x1a, 0x00, 0xfc, 0x05, 0x00, 0xcd, 0xda, 0xe6, 0x03,
    0x17, 0xd5, 0xf3, 0xf2, 0xea, 0xd6, 0xb7, 0x15, 0xda, 0xe4, 0x01, 0xde, 0x02,
    0xe4, 0xb7, 0x00, 0x0c, 0x1f, 0x23, 0xf0, 0xec, 0xf1, 0x01, 0x48, 0xdf, 0x05,
    0xf3, 0xf8, 0xe9, 0x0e, 0xf4, 0xf6, 0xb4, 0xc9, 0xe6, 0xe3, 0xf3, 0x0a, 0xc8,
    0xf1, 0xfa, 0xdc, 0xfe, 0x05, 0x0f, 0xe3, 0xa3, 0xc9, 0xf1, 0x01, 0x25, 0xe2,
    0x13, 0xf4, 0xfd, 0x10, 0xf5, 0x0f, 0xe7, 0xf7, 0xe1, 0x13, 0xf7, 0x14, 0xd0,
    0xed, 0x19, 0xdd, 0xf5, 0xf2, 0xd6, 0xfd, 0x19, 0xef, 0xff, 0xdf, 0x02, 0x06,
    0xe3, 0xdb, 0x1b, 0x23, 0x26, 0xe8, 0x18, 0xf2, 0x04, 0x1d, 0xf2, 0x0c, 0x02,
    0x10, 0xe1, 0xee, 0x0b, 0x09, 0x3c, 0xdc, 0x2e, 0xd1, 0xff, 0xfb, 0x0d, 0x1d,
    0xf0, 0xfc, 0xe0, 0xfd, 0x10, 0xe4, 0xe9, 0xfc, 0x07, 0x11, 0x25, 0xee, 0xd8,
    0x08, 0x20, 0x1f, 0xee, 0xf7, 0x02, 0x18, 0xfb, 0x18, 0xf4, 0x01, 0xb4, 0xf9,
    0x3f, 0x02, 0x21, 0x11, 0x09, 0xf6, 0x34, 0xf6, 0x1d, 0xf2, 0x11, 0xe2, 0xdf,
    0x1e, 0x20, 0x12, 0xfd, 0xe0, 0xed, 0xed, 0x1b, 0x0f, 0x12, 0xf6, 0xeb, 0x02,
    0xcb, 0xe5, 0xe9, 0x0f, 0xec, 0xf1, 0xfb, 0xf4, 0xf3, 0xe9, 0xda, 0x02, 0xd9,
    0x06, 0x19, 0xfe, 0x0c, 0x1f, 0xb9, 0xed, 0x0e, 0xff, 0x02, 0xf5, 0xee, 0xe8,
    0x08, 0x07, 0xfb, 0x0b, 0xfc, 0xf7, 0xef, 0xe6, 0xe2, 0x12, 0x0f, 0xfa, 0xf3,
    0xf2, 0xe7, 0x08, 0xde, 0x07, 0xfa, 0xed, 0x11, 0x17, 0x11, 0xed, 0xd1, 0xec,
    0x03, 0x07, 0x13, 0x20, 0xfc, 0xf3, 0x0f, 0xfa, 0x15, 0x1a, 0x10, 0x23, 0xd6,
    0x05, 0xea, 0x29, 0x16, 0xf2, 0xf2, 0xf3, 0xe7, 0x1e, 0x04, 0x11, 0xe4, 0xf1,
    0x05, 0xfb, 0x03, 0x07, 0xe2, 0xd7, 0x20, 0x0a, 0x08, 0xca, 0xc0, 0xdb, 0x16,
    0x08, 0x09, 0x1d, 0x21, 0x0b, 0xca, 0xe8, 0x0f, 0x22, 0xd6, 0xf9, 0x1c, 0xe8,
    0xfa, 0xd9, 0xf4, 0xfd, 0xed, 0x07, 0xd7, 0xd4, 0x15, 0x0d, 0xc6, 0xf6, 0x06,
    0x25, 0x2a, 0x24, 0xfb, 0xf3, 0x0f, 0xf6, 0x02, 0x15, 0xe4, 0x0c, 0xd3, 0xe5,
    0xfb, 0xf6, 0xe2, 0x0a, 0xff, 0x06, 0xd9, 0xef, 0xc0, 0x19, 0xf5, 0xfe, 0x08,
    0xec, 0x0f, 0xf2, 0xb0, 0x01, 0xff, 0xf5, 0x12, 0xf8, 0x05, 0xf9, 0x10, 0x0b,
    0xf2, 0xf1, 0xff, 0x18, 0xe8, 0x15, 0x20, 0xe7, 0xe9, 0x09, 0x1b, 0x01, 0x01,
    0xfe, 0xfa, 0x06, 0xea, 0xf6, 0xfe, 0xf2, 0x04, 0x07, 0xde, 0xec, 0x0c, 0x16,
    0x14, 0xf7, 0x18, 0xfe, 0x01, 0x3f, 0x0b, 0x09, 0x11, 0x0b, 0xf7, 0x26, 0x07,
    0x0e, 0xdf, 0xf8, 0xf9, 0xf6, 0xec, 0x0b, 0x06, 0x13, 0x01, 0x01, 0x04, 0x01,
    0x06, 0x02, 0x01, 0xc8, 0x19, 0x05, 0x0c, 0xff, 0xf7, 0x09, 0x1e, 0x03, 0xf1,
    0x09, 0xf5, 0x13, 0x08, 0x02, 0x05, 0x09, 0xbd, 0x08, 0x1e, 0x0f, 0x10, 0xf7,
    0xfc, 0xfb, 0xfd, 0xda, 0x01, 0x11, 0x15, 0x08, 0x1d, 0x05, 0x1b, 0xf9, 0xee,
    0xeb, 0x13, 0xfc, 0x02, 0xe6, 0x0a, 0x03, 0xfd, 0xf5, 0xf8, 0xe4, 0x0d, 0x16,
    0xd6, 0x07, 0xf7, 0xd8, 0xec, 0xfb, 0x09, 0xee, 0xfa, 0xe3, 0x0c, 0xf6, 0xf8,
    0x09, 0x02, 0xfd, 0xf3, 0xfb, 0xe5, 0x01, 0x06, 0xfe, 0xfd, 0xfc, 0xf5, 0x04,
    0xd8, 0x0b, 0xf8, 0xf2, 0xfa, 0x04, 0xcb, 0xf4, 0x07, 0xf4, 0x06, 0x0b, 0x09,
    0x0b, 0x0c, 0x02, 0xf9, 0x09, 0xfd, 0xff, 0xd1, 0x28, 0xfc, 0x08, 0x10, 0x01,
    0xfe, 0x08, 0x09, 0xff, 0x0b, 0x05, 0xf9, 0x08, 0xf6, 0x17, 0x15, 0x1f, 0x1d,
    0xd5, 0x03, 0xf3, 0xe8, 0x21, 0x13, 0xf5, 0xef, 0xf5, 0xf4, 0x1b, 0x20, 0x02,
    0xa2, 0x13, 0x1e, 0xf8, 0xf2, 0xf1, 0xe2, 0x16, 0xf2, 0xec, 0x19, 0xf9, 0x0e,
    0xff, 0x04, 0x01, 0x09, 0x05, 0x0b, 0xed, 0xfa, 0x0a, 0xe1, 0x24, 0x10, 0xf0,
    0x02, 0x05, 0xd6, 0x16, 0xff, 0x0c, 0xaf, 0x10, 0xfd, 0x16, 0x03, 0xf0, 0x04,
    0xf3, 0x04, 0xe1, 0x14, 0x0f, 0xff, 0x12, 0xfb, 0xe4, 0x10, 0x0c, 0xe9, 0xe3,
    0x18, 0xf8, 0xeb, 0x0d, 0x0f, 0xf5, 0xe1, 0xfc, 0xfe, 0x25, 0x18, 0x17, 0xee,
    0x11, 0x01, 0x14, 0x04, 0xea, 0xfb, 0x05, 0x09, 0xee, 0x04, 0x02, 0xfa, 0x17,
    0x20, 0x08, 0x1a, 0x1c, 0x25, 0xea, 0x14, 0xeb, 0xea, 0x2c, 0x1b, 0xff, 0x06,
    0x04, 0x0c, 0x15, 0x28, 0x07, 0xd6, 0x18, 0x25, 0x0f, 0xfa, 0xe9, 0x0f, 0xf8,
    0x01, 0xe2, 0x02, 0x15, 0xff, 0xfd, 0x0d, 0x09, 0xe7, 0xe8, 0xdd, 0x0f, 0xf6,
    0x04, 0xdf, 0xfe, 0x06, 0xd5, 0xed, 0xe9, 0xfc, 0x25, 0x25, 0x0b, 0xe8, 0x14,
    0xf0, 0x10, 0xf7, 0xe0, 0xd3, 0xf4, 0x08, 0xd4, 0xee, 0xf5, 0xfa, 0xf7, 0xfe,
    0xdd, 0xcb, 0xee, 0xcd, 0xe8, 0xdb, 0xf3, 0xcd, 0xeb, 0xf4, 0xc9, 0xe0, 0xda,
    0x13, 0x21, 0x0b, 0x1e, 0xf0, 0x0d, 0xf6, 0xe4, 0xef, 0xeb, 0x14, 0x08, 0xf3,
    0xee, 0xf4, 0xfd, 0xe3, 0xfa, 0x19, 0xde, 0xfb, 0xe3, 0x2c, 0x18, 0x0c, 0x23,
    0xd7, 0x2b, 0xe9, 0xe9, 0xff, 0x08, 0x29, 0xf8, 0x0c, 0x00, 0xe0, 0x00, 0x12,
    0xee, 0xe4, 0x2b, 0x07, 0xf4, 0x0d, 0xec, 0xe8, 0xf6, 0xe5, 0x0f, 0x0c, 0x00,
    0xf9, 0xc0, 0x0f, 0x00, 0xff, 0x25, 0xde, 0x32, 0xf7, 0xe7, 0xee, 0xf0, 0x09,
    0x04, 0x12, 0xfe, 0xc9, 0x00, 0x02, 0xda, 0xdb, 0xff, 0x11, 0x04, 0x07, 0xe6,
    0xea, 0x0a, 0x09, 0x0f, 0x03, 0xec, 0x09, 0x07, 0xfc, 0x1c, 0x1c, 0x24, 0xf8,
    0x0a, 0x05, 0xf6, 0xf0, 0xff, 0x15, 0x02, 0x0d, 0xf6, 0xb6, 0xfe, 0xfb, 0xec,
    0x00, 0x1c, 0x0b, 0xfb, 0xfd, 0x01, 0x0d, 0xe2, 0x10, 0xf7, 0x08, 0xe3, 0x17,
    0xfa, 0x09, 0x10, 0xec, 0x09, 0xed, 0x11, 0x15, 0xf3, 0x0d, 0x1b, 0x11, 0x06,
    0x06, 0x15, 0xef, 0xe9, 0xfd, 0x02, 0x0c, 0xfd, 0xf0, 0x0d, 0x0d, 0xfd, 0x02,
    0xfb, 0x0f, 0x02, 0xf1, 0xda, 0xfe, 0xfa, 0xec, 0x01, 0x05, 0x0a, 0xeb, 0xeb,
    0x0e, 0xf5, 0xfd, 0xfd, 0xef, 0xe1, 0xfc, 0xe6, 0xd7, 0xf0, 0x02, 0xf8, 0xea,
    0x1b, 0xea, 0x0c, 0x14, 0x01, 0xff, 0xef, 0xfe, 0xf8, 0x01, 0xe7, 0x09, 0xe0,
    0x0e, 0xef, 0xf7, 0x0d, 0xf3, 0xfd, 0x0c, 0xed, 0x13, 0x07, 0x05, 0xf4, 0x08,
    0x0b, 0xa9, 0xfc, 0xf6, 0xf4, 0xf9, 0x13, 0x03, 0x0a, 0x08, 0xfe, 0xdc, 0xff,
    0xf4, 0xf3, 0xfd, 0x0d, 0x16, 0xfd, 0x03, 0xf7, 0xd9, 0x11, 0xf7, 0x0a, 0xf5,
    0xd9, 0x01, 0xee, 0x12, 0xed, 0xf4, 0xf8, 0xcb, 0xd0, 0xfe, 0xee, 0x0c, 0xf7,
    0xee, 0xfe, 0xf7, 0x14, 0x04, 0x1c, 0x0f, 0x06, 0xf6, 0x0d, 0xf4, 0x0c, 0x13,
    0xe6, 0xef, 0xf7, 0xe9, 0xfa, 0xe5, 0xdc, 0x00, 0xf1, 0x05, 0x07, 0x07, 0x0e,
    0xea, 0x05, 0x18, 0x01, 0x0b, 0x0f, 0x0e, 0x10, 0x09, 0x02, 0xf5, 0xfa, 0x07,
    0x16, 0x15, 0x03, 0xfb, 0x06, 0xf5, 0xe9, 0x29, 0x1b, 0x20, 0xfd, 0xf3, 0x00,
    0xfb, 0xf4, 0x1d, 0xfc, 0x08, 0x03, 0xec, 0x00, 0xed, 0xde, 0x15, 0xfd, 0x00,
    0x0a, 0x0d, 0xfd, 0xf9, 0xfc, 0xec, 0x01, 0x18, 0x18, 0x19, 0xf9, 0x07, 0xf2,
    0x0a, 0x12, 0xf9, 0xfe, 0x0c, 0xeb, 0x05, 0xe7, 0x15, 0x0c, 0x16, 0x06, 0x11,
    0x0e, 0xf3, 0x18, 0x05, 0x00, 0x1c, 0x11, 0x0d, 0x07, 0x0a, 0xf2, 0x08, 0x04,
    0x38, 0x2f, 0x20, 0x04, 0x1b, 0x05, 0x10, 0xef, 0x18, 0x16, 0xf2, 0xe9, 0x07,
    0x04, 0xfd, 0x15, 0x16, 0xfc, 0xfa, 0xf9, 0xea, 0x1d, 0xfc, 0xf1, 0x0b, 0x19,
    0xee, 0xdf, 0xdd, 0x03, 0x0a, 0xf8, 0x1a, 0x10, 0x15, 0x10, 0x2b, 0x0d, 0xe4,
    0x07, 0x09, 0xf8, 0xf3, 0xe9, 0xfe, 0x04, 0xef, 0xf8, 0xf5, 0x02, 0x0d, 0xe3,
    0x14, 0x0f, 0x15, 0xfd, 0x0c, 0xf4, 0xf5, 0xec, 0x24, 0xd9, 0xf6, 0xef, 0x11,
    0xe5, 0x04, 0xf3, 0x35, 0x12, 0x00, 0xf7, 0xeb, 0xfb, 0x18, 0xd2, 0xfe, 0xfc,
    0xf9, 0x04, 0x04, 0xf2, 0x29, 0xd3, 0x06, 0x04, 0xdf, 0x07, 0x04, 0x11, 0xee,
    0x0f, 0xe4, 0xe6, 0xff, 0x01, 0x12, 0xfc, 0x11, 0x0f, 0x03, 0xfb, 0x1c, 0x0b,
    0xee, 0x02, 0x19, 0xe8, 0x10, 0xf9, 0xf6, 0x07, 0x04, 0xfe, 0xcd, 0xd3, 0xe1,
    0x17, 0x00, 0x09, 0x1d, 0x21, 0x10, 0x19, 0x05, 0xfd, 0xff, 0x06, 0x2d, 0x09,
    0xf8, 0x10, 0x00, 0x16, 0xf0, 0xfb, 0xfc, 0x09, 0x24, 0xdf, 0x17, 0x08, 0x16,
    0x28, 0xfd, 0xf5, 0xe2, 0xdf, 0xfb, 0x09, 0xe2, 0x1a, 0xef, 0x13, 0x18, 0xdb,
    0x2c, 0x09, 0xed, 0x0b, 0x08, 0xdc, 0xff, 0x1f, 0xb1, 0x0c, 0xfb, 0x07, 0x17,
    0xee, 0x18, 0x06, 0xfc, 0xe8, 0x1a, 0x01, 0xf9, 0x09, 0x41, 0xeb, 0x14, 0x02,
    0x0d, 0xf4, 0x11, 0xfc, 0xea, 0xe6, 0xe1, 0x14, 0x14, 0xfa, 0x03, 0x08, 0x07,
    0x00, 0xda, 0xf6, 0x02, 0x06, 0xf8, 0x05, 0xf7, 0xfd, 0x13, 0xf2, 0x2a, 0x1b,
    0x20, 0xf5, 0x11, 0xf4, 0xfd, 0x07, 0x0f, 0x04, 0xf9, 0xf3, 0x0b, 0xf1, 0xed,
    0x07, 0xff, 0xfb, 0x1b, 0x1e, 0x11, 0xfe, 0xd3, 0xf6, 0x17, 0x08, 0x16, 0x11,
    0xf9, 0xf4, 0x0d, 0xe5, 0x04, 0xff, 0x05, 0xf0, 0xec, 0xfc, 0xfa, 0x04, 0x01,
    0x0b, 0x11, 0xef, 0x05, 0x10, 0xf1, 0xf5, 0x1f, 0x09, 0x22, 0x22, 0x29, 0x00,
    0xd8, 0x1c, 0x00, 0x0a, 0x0d, 0x04, 0x0c, 0xf6, 0xf2, 0x02, 0xfd, 0x00, 0x1e,
    0xfe, 0x36, 0xea, 0x0e, 0x0c, 0x0d, 0x03, 0x0b, 0x02, 0xec, 0xe3, 0xdf, 0xeb,
    0x0e, 0xeb, 0x31, 0x12, 0x12, 0xf9, 0xf1, 0x29, 0xea, 0xf6, 0xec, 0xf2, 0xf3,
    0xf5, 0xe8, 0x1d, 0x08, 0x1e, 0x0d, 0x03, 0x20, 0xbd, 0xef, 0x2a, 0x10, 0xe9,
    0x22, 0x01, 0xe5, 0xdb, 0xf9, 0xed, 0x0c, 0xfc, 0x16, 0x0d, 0x21, 0xec, 0xd4,
    0x0f, 0xee, 0xfe, 0xea, 0xfa, 0xe6, 0xf3, 0xf1, 0x12, 0x08, 0xfd, 0x12, 0x10,
    0x15, 0xcc, 0x11, 0x1a, 0x14, 0x01, 0x30, 0x15, 0x02, 0xe2, 0xd7, 0xd9, 0x07,
    0xf6, 0x0c, 0xff, 0x23, 0x13, 0xf7, 0x21, 0x27, 0x10, 0x00, 0xfa, 0x0c, 0xfb,
    0x0c, 0x06, 0x13, 0x1e, 0x02, 0xec, 0x39, 0xf8, 0x0c, 0x05, 0xe1, 0x0c, 0x0f,
    0x04, 0xfe, 0xf7, 0x13, 0x02, 0x08, 0x0a, 0x22, 0x04, 0x27, 0x02, 0x2d, 0x06,
    0x17, 0xee, 0x1b, 0xf6, 0xf6, 0xf4, 0x2c, 0x04, 0xfe, 0x11, 0x03, 0x02, 0x01,
    0xd5, 0x0e, 0x0d, 0x08, 0xf7, 0xf6, 0x00, 0x06, 0x22, 0x26, 0x07, 0x08, 0xff,
    0xfb, 0xe8, 0x15, 0x25, 0x03, 0xd6, 0xfb, 0xec, 0xfc, 0x01, 0x06, 0x08, 0x1e,
    0xf7, 0x22, 0xf2, 0x02, 0xeb, 0xe0, 0xc8, 0x11, 0xee, 0x08, 0xf9, 0xfe, 0x0a,
    0xed, 0x04, 0x2b, 0x01, 0x15, 0xf5, 0x2f, 0xfa, 0x22, 0x17, 0xc1, 0xfb, 0xf5,
    0x02, 0x19, 0x24, 0xf5, 0xe8, 0xfa, 0xfc, 0x08, 0x04, 0x22, 0x1f, 0xf7, 0xf6,
    0xf6, 0xff, 0x1b, 0x0c, 0xfd, 0x08, 0xeb, 0xe8, 0xfc, 0xe4, 0x0d, 0xf4, 0x11,
    0x08, 0x32, 0xff, 0xe1, 0x02, 0x0a, 0x30, 0x02, 0x0c, 0x1a, 0xda, 0x10, 0x06,
    0x0b, 0x08, 0x11, 0x13, 0xcf, 0xfc, 0x0c, 0x11, 0xf2, 0x18, 0x16, 0xf2, 0x00,
    0x15, 0xeb, 0xeb, 0xeb, 0x02, 0x1b, 0x17, 0x1e, 0x18, 0xe3, 0x00, 0xe1, 0x15,
    0x03, 0xfb, 0x04, 0xf3, 0xe9, 0x0f, 0xfc, 0x0b, 0x0e, 0xf7, 0x2f, 0xd8, 0x03,
    0x26, 0xf5, 0x08, 0x2b, 0xfd, 0x0b, 0x00, 0xec, 0xe2, 0xef, 0xee, 0x28, 0x06,
    0x2b, 0xfb, 0xf9, 0x20, 0xf6, 0x17, 0xe6, 0x07, 0x0f, 0xe8, 0xfb, 0xef, 0xf9,
    0x12, 0x07, 0x1b, 0x18, 0xc1, 0x11, 0x06, 0xd1, 0xfd, 0x0b, 0xfb, 0x10, 0x02,
    0xe7, 0xf7, 0x15, 0x04, 0x17, 0xf4, 0x19, 0xdd, 0x05, 0x17, 0x01, 0x17, 0x05,
    0xe1, 0xfe, 0xf8, 0x11, 0x09, 0x1c, 0x12, 0x08, 0xfc, 0x28, 0xd0, 0x0b, 0x16,
    0xfa, 0xeb, 0x0b, 0x1c, 0x07, 0xd2, 0x1f, 0xe2, 0x14, 0xf7, 0x22, 0x04, 0x1e,
    0xfb, 0x13, 0x17, 0x10, 0x1f, 0x0a, 0xff, 0x22, 0xd2, 0x0d, 0x17, 0x05, 0xff,
    0xff, 0x11, 0x28, 0xe0, 0x0b, 0xf3, 0xe9, 0xdc, 0x2d, 0xfc, 0xec, 0xf9, 0x01,
    0xec, 0x22, 0xfa, 0x21, 0xf6, 0x0f, 0x0b, 0x0e, 0xdf, 0x07, 0xfb, 0x04, 0xf2,
    0x16, 0xfe, 0x28, 0xfd, 0xef, 0xff, 0xd1, 0xfa, 0x2b, 0xf2, 0x0c, 0x04, 0xf8,
    0xe7, 0xf8, 0x22, 0xfa, 0xfe, 0x43, 0xf5, 0xf2, 0xfc, 0x16, 0x06, 0x07, 0x0c,
    0xe7, 0x1c, 0x22, 0xfe, 0x00, 0x0e, 0x2e, 0x1d, 0x02, 0x03, 0x1b, 0xf0, 0xf3,
    0xf6, 0xeb, 0xfa, 0x2f, 0x05, 0xfd, 0x05, 0x08, 0xf2, 0x11, 0xe8, 0x0b, 0xf1,
    0xfb, 0xe3, 0x0f, 0xd0, 0xff, 0x29, 0xd3, 0xfa, 0x09, 0x14, 0x3a, 0x10, 0xf1,
    0x0d, 0x04, 0xdb, 0x0b, 0xf6, 0xf2, 0xfa, 0xb6, 0x02, 0x00, 0xff, 0x1d, 0x05,
    0x0d, 0xdc, 0x11, 0x18, 0xfd, 0x03, 0xdf, 0xf5, 0x15, 0x19, 0x26, 0xf8, 0x12,
    0xff, 0x05, 0x12, 0x11, 0x05, 0x00, 0xf9, 0x07, 0xe4, 0xee, 0x0d, 0xfc, 0xe8,
    0xf4, 0xf5, 0xe7, 0x0b, 0xfd, 0xea, 0x0c, 0xf7, 0x12, 0x32, 0x2d, 0xdb, 0xe5,
    0xff, 0x2c, 0xff, 0x30, 0x20, 0xfc, 0x23, 0x1b, 0xfe, 0x02, 0x02, 0xfc, 0x17,
    0x05, 0xea, 0xf9, 0x12, 0x08, 0xf8, 0x01, 0xfd, 0xed, 0x11, 0xf1, 0xfd, 0x23,
    0xfa, 0xea, 0xfa, 0xeb, 0xcf, 0xe7, 0x0d, 0x32, 0x21, 0x07, 0x07, 0xeb, 0x25,
    0x0c, 0x09, 0x0a, 0xf5, 0x07, 0xf7, 0xfd, 0x0e, 0x03, 0xf0, 0xe7, 0xed, 0x13,
    0xe0, 0xfc, 0x0e, 0x06, 0x0d, 0x09, 0x07, 0xf2, 0xe1, 0xe0, 0xec, 0xfe, 0xee,
    0x30, 0x0e, 0x17, 0x10, 0xea, 0x07, 0xb4, 0x11, 0xf3, 0xec, 0x09, 0xf5, 0x07,
    0xf2, 0x01, 0x18, 0x0a, 0x0d, 0x0e, 0xb6, 0xeb, 0xf2, 0x21, 0xea, 0x05, 0xfb,
    0xf2, 0x0a, 0xf0, 0xd2, 0x0d, 0xfd, 0x29, 0x13, 0x20, 0x01, 0x0f, 0xfc, 0xf0,
    0x0a, 0xec, 0xc6, 0x17, 0xdf, 0xe8, 0xf6, 0xe0, 0xfb, 0xf9, 0x08, 0x0c, 0xde,
    0xee, 0xf5, 0x3d, 0xe2, 0x0f, 0x0d, 0xee, 0x15, 0xf9, 0x11, 0xf5, 0xf2, 0x1a,
    0x03, 0x07, 0x09, 0xf7, 0x03, 0x0f, 0xff, 0x02, 0xd1, 0xf9, 0x0a, 0x08, 0x02,
    0xe3, 0x04, 0xeb, 0xdf, 0xf2, 0xca, 0x0c, 0x0d, 0x07, 0x03, 0x08, 0xf6, 0x10,
    0x16, 0xeb, 0xe2, 0xf6, 0x06, 0xff, 0xfe, 0x13, 0x03, 0xee, 0x01, 0x3c, 0xfa,
    0x03, 0xf7, 0xfb, 0xfa, 0x25, 0x19, 0x15, 0xff, 0x25, 0xf3, 0xda, 0xd8, 0x1b,
    0x01, 0xff, 0xef, 0x0b, 0x05, 0x10, 0x18, 0x17, 0x0b, 0xcb, 0xde, 0xf2, 0xe1,
    0xf2, 0x22, 0xf5, 0x09, 0x0e, 0xee, 0x0a, 0x09, 0xfa, 0x17, 0x0f, 0xf1, 0xee,
    0xe5, 0xf9, 0xd4, 0x05, 0x0a, 0xe9, 0x1b, 0xfd, 0xf3, 0x03, 0xf4, 0xeb, 0x07,
    0xf8, 0xfd, 0xe7, 0x07, 0x2c, 0x1c, 0x14, 0x02, 0xe1, 0xfb, 0x19, 0xee, 0xfb,
    0xf4, 0x23, 0xed, 0x02, 0xe9, 0x00, 0x04, 0x0c, 0x02, 0xd8, 0xef, 0x11, 0xfd,
    0xf1, 0x05, 0xfe, 0xef, 0xec, 0xe5, 0xf6, 0xd7, 0xeb, 0xe9, 0x26, 0xea, 0x18,
    0x09, 0xcb, 0xfe, 0xde, 0xe8, 0x03, 0xf3, 0xfb, 0xe3, 0xf9, 0xe0, 0x0e, 0x00,
    0xd6, 0x04, 0x08, 0xea, 0xe4, 0x09, 0x1d, 0xeb, 0xf5, 0xec, 0xf8, 0xea, 0xe1,
    0xef, 0xdd, 0xf8, 0x26, 0x07, 0x22, 0x0c, 0xce, 0x04, 0xfb, 0xdd, 0xf0, 0xd8,
    0xe8, 0xfe, 0x0a, 0xfe, 0xf5, 0xeb, 0xf1, 0xe8, 0xf6, 0xbe, 0x05, 0x0f, 0x0b,
    0xfb, 0x09, 0xe3, 0x00, 0xe3, 0x0e, 0xe0, 0x1d, 0xfc, 0x25, 0xf9, 0x1a, 0x0f,
    0xdc, 0xf1, 0x0e, 0xf6, 0xde, 0xe2, 0xe2, 0xfa, 0x0e, 0x03, 0xf9, 0xdf, 0xf2,
    0x05, 0xe6, 0xd2, 0x12, 0x0b, 0x14, 0x06, 0xf4, 0xf0, 0xed, 0x01, 0x14, 0xee,
    0x14, 0x09, 0x1b, 0x04, 0x18, 0x1e, 0xd5, 0x1e, 0x4e, 0xf5, 0x11, 0xba, 0xed,
    0x14, 0x12, 0x13, 0xff, 0xe1, 0xef, 0xf5, 0xf9, 0xf9, 0x0b, 0x22, 0xf4, 0x03,
    0x11, 0x1b, 0xf2, 0xef, 0x0c, 0x01, 0x03, 0x09, 0x18, 0x13, 0x21, 0xfe, 0xe3,
    0x08, 0x39, 0x07, 0x14, 0xe7, 0x13, 0xff, 0x18, 0xeb, 0x07, 0xf4, 0xe4, 0xf1,
    0xc7, 0xfc, 0xeb, 0x3e, 0x23, 0xee, 0x00, 0xff, 0x13, 0x0b, 0x32, 0x06, 0x06,
    0x04, 0xfc, 0x11, 0x2c, 0x22, 0xf4, 0x13, 0x09, 0x23, 0x06, 0x0c, 0x13, 0xf6,
    0x18, 0x11, 0x29, 0xfe, 0x06, 0xfc, 0x07, 0x03, 0x1d, 0x10, 0x0f, 0xe0, 0x0a,
    0x12, 0x02, 0x3e, 0xfd, 0x13, 0xfb, 0x1c, 0x06, 0xfc, 0x0e, 0x14, 0x2c, 0x0e,
    0x1b, 0x10, 0x2c, 0xf5, 0x29, 0x26, 0x37, 0xf4, 0xfd, 0xf8, 0x13, 0xdc, 0xcc,
    0x06, 0xf7, 0x26, 0x0d, 0x0a, 0x14, 0xf0, 0x1a, 0x06, 0xe1, 0xf8, 0x20, 0xfe,
    0x0c, 0x2d, 0x12, 0x1d, 0x38, 0xfe, 0x0e, 0x0a, 0xf8, 0xee, 0xf1, 0x01, 0x1f,
    0xd2, 0x1d, 0x0c, 0x0f, 0x04, 0xd4, 0xdb, 0x01, 0x11, 0x06, 0xf5, 0x01, 0xf3,
    0x08, 0x02, 0xf8, 0xee, 0xe2, 0x07, 0x04, 0xea, 0x07, 0xf2, 0x00, 0xed, 0xea,
    0x1e, 0xe5, 0x08, 0xd5, 0xf8, 0xf6, 0xd1, 0xfb, 0xe9, 0xfd, 0x03, 0xb9, 0xc9,
    0x0d, 0x20, 0xf6, 0x0a, 0x0a, 0xe8, 0x17, 0xfb, 0xf3, 0xf3, 0xd7, 0x06, 0x0f,
    0x08, 0x07, 0xe5, 0xd5, 0x0e, 0x0b, 0x0c, 0xfa, 0xea, 0xf0, 0x12, 0x01, 0xf8,
    0xf7, 0xe6, 0xe2, 0xf2, 0xde, 0x02, 0x05, 0x0f, 0xfa, 0x0d, 0xf2, 0xf2, 0x01,
    0xfe, 0xed, 0xf2, 0x06, 0x12, 0x15, 0x12, 0x19, 0x0a, 0xf8, 0x02, 0xf7, 0xe9,
    0x07, 0xe9, 0xf9, 0x0e, 0xe6, 0xf4, 0xe5, 0x1b, 0xe6, 0x06, 0x1f, 0xc6, 0xff,
    0x09, 0xd2, 0xfa, 0x01, 0xf6, 0x16, 0xe3, 0x17, 0x01, 0xf6, 0xff, 0x14, 0xf9,
    0x13, 0x13, 0xfe, 0x00, 0x17, 0x05, 0xfd, 0xc7, 0xdf, 0xf6, 0xf2, 0xfc, 0x0e,
    0xf7, 0xfd, 0xf3, 0xf5, 0xd6, 0xf1, 0x1e, 0xef, 0xf6, 0x04, 0x0c, 0xfd, 0xe0,
